{
  "version": "1.0",
  "truncation": null,
  "padding": null,
  "added_tokens": [
    {
      "id": 0,
      "content": "[UNK]",
      "single_word": false,
      "lstrip": false,
      "rstrip": false,
      "normalized": false,
      "special": true
    },
    {
      "id": 1,
      "content": "[PAD]",
      "single_word": false,
      "lstrip": false,
      "rstrip": false,
      "normalized": false,
      "special": true
    }
  ],
  "normalizer": null,
  "pre_tokenizer": {
    "type": "Whitespace"
  },
  "post_processor": null,
  "decoder": null,
  "model": {
    "type": "BPE",
    "dropout": null,
    "unk_token": "[UNK]",
    "continuing_subword_prefix": null,
    "end_of_word_suffix": null,
    "fuse_unk": false,
    "byte_fallback": false,
    "ignore_merges": false,
    "vocab": {
      "[UNK]": 0,
      "[PAD]": 1,
      "\"": 2,
      "$": 3,
      "%": 4,
      "&": 5,
      "'": 6,
      "(": 7,
      ")": 8,
      "+": 9,
      ",": 10,
      "-": 11,
      ".": 12,
      "/": 13,
      "0": 14,
      "1": 15,
      "2": 16,
      "3": 17,
      "4": 18,
      "5": 19,
      "6": 20,
      "7": 21,
      "8": 22,
      "9": 23,
      ":": 24,
      ";": 25,
      "?": 26,
      "A": 27,
      "B": 28,
      "C": 29,
      "D": 30,
      "E": 31,
      "F": 32,
      "G": 33,
      "H": 34,
      "I": 35,
      "J": 36,
      "K": 37,
      "L": 38,
      "M": 39,
      "N": 40,
      "O": 41,
      "P": 42,
      "Q": 43,
      "R": 44,
      "S": 45,
      "T": 46,
      "U": 47,
      "V": 48,
      "W": 49,
      "X": 50,
      "Y": 51,
      "Z": 52,
      "[": 53,
      "]": 54,
      "a": 55,
      "b": 56,
      "c": 57,
      "d": 58,
      "e": 59,
      "f": 60,
      "g": 61,
      "h": 62,
      "i": 63,
      "j": 64,
      "k": 65,
      "l": 66,
      "m": 67,
      "n": 68,
      "o": 69,
      "p": 70,
      "q": 71,
      "r": 72,
      "s": 73,
      "t": 74,
      "u": 75,
      "v": 76,
      "w": 77,
      "x": 78,
      "y": 79,
      "z": 80,
      "ª": 81,
      "°": 82,
      "²": 83,
      "º": 84,
      "Á": 85,
      "Ã": 86,
      "É": 87,
      "Í": 88,
      "Ó": 89,
      "Ú": 90,
      "à": 91,
      "á": 92,
      "â": 93,
      "ã": 94,
      "ç": 95,
      "é": 96,
      "ê": 97,
      "í": 98,
      "ñ": 99,
      "ó": 100,
      "ô": 101,
      "õ": 102,
      "ö": 103,
      "ú": 104,
      "ü": 105,
      "ɾ": 106,
      "ˈ": 107,
      "​": 108,
      "–": 109,
      "—": 110,
      "•": 111,
      "−": 112,
      "ⓘ": 113,
      "de": 114,
      "ra": 115,
      "do": 116,
      "es": 117,
      "co": 118,
      "as": 119,
      "nt": 120,
      "or": 121,
      "os": 122,
      "ri": 123,
      "da": 124,
      "al": 125,
      "er": 126,
      "ma": 127,
      "ci": 128,
      "ca": 129,
      "is": 130,
      "em": 131,
      "ta": 132,
      "ão": 133,
      "il": 134,
      "ro": 135,
      "in": 136,
      "re": 137,
      "pa": 138,
      "ent": 139,
      "ras": 140,
      "ti": 141,
      "no": 142,
      "qu": 143,
      ".[": 144,
      "na": 145,
      "en": 146,
      "ei": 147,
      "com": 148,
      "ção": 149,
      "rasil": 150,
      "el": 151,
      "di": 152,
      "to": 153,
      "dos": 154,
      "se": 155,
      "tu": 156,
      "ul": 157,
      "un": 158,
      "por": 159,
      "res": 160,
      "ment": 161,
      "te": 162,
      "ia": 163,
      "po": 164,
      "an": 165,
      "Brasil": 166,
      "ar": 167,
      "que": 168,
      "20": 169,
      "on": 170,
      "ís": 171,
      "pro": 172,
      "ões": 173,
      "das": 174,
      "du": 175,
      "país": 176,
      "des": 177,
      "con": 178,
      "su": 179,
      "mo": 180,
      "19": 181,
      "ex": 182,
      "ica": 183,
      "ou": 184,
      "pe": 185,
      "um": 186,
      "so": 187,
      "va": 188,
      "mai": 189,
      "tor": 190,
      "maior": 191,
      "cia": 192,
      "gu": 193,
      "ran": 194,
      "fo": 195,
      "mun": 196,
      "][": 197,
      "uma": 198,
      "ol": 199,
      "vi": 200,
      "im": 201,
      "mente": 202,
      "brasil": 203,
      "ha": 204,
      "brasilei": 205,
      "at": 206,
      "pri": 207,
      "ram": 208,
      "ria": 209,
      "dade": 210,
      "como": 211,
      "mil": 212,
      "ter": 213,
      "si": 214,
      "para": 215,
      "pel": 216,
      "ve": 217,
      "nte": 218,
      "produ": 219,
      "ções": 220,
      "mb": 221,
      "ni": 222,
      "ros": 223,
      "li": 224,
      "st": 225,
      "ver": 226,
      "par": 227,
      "la": 228,
      "me": 229,
      "ral": 230,
      "ém": 231,
      "ist": 232,
      "go": 233,
      "pos": 234,
      "foi": 235,
      "ina": 236,
      "rica": 237,
      "onal": 238,
      "),": 239,
      "rio": 240,
      "cul": 241,
      "esta": 242,
      "ita": 243,
      "lo": 244,
      "gi": 245,
      "pres": 246,
      "são": 247,
      "cos": 248,
      "18": 249,
      "for": 250,
      "mais": 251,
      "cial": 252,
      "cional": 253,
      "sa": 254,
      "Es": 255,
      "ên": 256,
      "iz": 257,
      "eiro": 258,
      "le": 259,
      "lí": 260,
      "ntes": 261,
      "cio": 262,
      "endo": 263,
      "mento": 264,
      "ação": 265,
      "ru": 266,
      "ede": 267,
      "tica": 268,
      "cu": 269,
      "lu": 270,
      "ça": 271,
      "est": 272,
      "Em": 273,
      "ao": 274,
      "cas": 275,
      "pi": 276,
      ",[": 277,
      "hões": 278,
      "nter": 279,
      "entre": 280,
      "tura": 281,
      "cor": 282,
      "tos": 283,
      "tiv": 284,
      "fi": 285,
      "man": 286,
      "mé": 287,
      "tem": 288,
      "mundo": 289,
      "ce": 290,
      "sti": 291,
      "10": 292,
      "15": 293,
      "ab": 294,
      "ga": 295,
      "porta": 296,
      "mbém": 297,
      "ência": 298,
      "mi": 299,
      "era": 300,
      "também": 301,
      "nacional": 302,
      "per": 303,
      "14": 304,
      "12": 305,
      "gra": 306,
      "der": 307,
      "nom": 308,
      "gun": 309,
      "ho": 310,
      "us": 311,
      "gover": 312,
      "ap": 313,
      "nto": 314,
      "dial": 315,
      "fica": 316,
      "polí": 317,
      "16": 318,
      "au": 319,
      "tro": 320,
      "car": 321,
      "ente": 322,
      "eira": 323,
      "13": 324,
      "bil": 325,
      "fa": 326,
      "io": 327,
      "nci": 328,
      "vol": 329,
      "200": 330,
      "stitu": 331,
      "ne": 332,
      "nos": 333,
      "prim": 334,
      "brasileiro": 335,
      "Esta": 336,
      "ces": 337,
      "pul": 338,
      "tra": 339,
      "ista": 340,
      "brasileira": 341,
      "milhões": 342,
      "produtor": 343,
      "ag": 344,
      "ição": 345,
      "tal": 346,
      "erca": 347,
      "17": 348,
      "Pa": 349,
      "ch": 350,
      "gia": 351,
      "inter": 352,
      "sé": 353,
      "tri": 354,
      "cont": 355,
      "Amé": 356,
      "rá": 357,
      "enta": 358,
      "tugu": 359,
      "princi": 360,
      "ederal": 361,
      "No": 362,
      "min": 363,
      "tiva": 364,
      "ando": 365,
      "pelo": 366,
      "22": 367,
      "Uni": 368,
      "nas": 369,
      "sendo": 370,
      "uro": 371,
      "vel": 372,
      "popul": 373,
      "América": 374,
      "Co": 375,
      "Na": 376,
      "Por": 377,
      "cí": 378,
      "mas": 379,
      "mundial": 380,
      "Os": 381,
      "adas": 382,
      "eco": 383,
      "idade": 384,
      "ári": 385,
      "col": 386,
      "reg": 387,
      "nais": 388,
      "portugu": 389,
      "sua": 390,
      "pela": 391,
      "Re": 392,
      "fer": 393,
      "mes": 394,
      "qui": 395,
      "enas": 396,
      "ele": 397,
      "países": 398,
      "nomia": 399,
      "00": 400,
      "ju": 401,
      "lica": 402,
      "ês": 403,
      "regi": 404,
      "ens": 405,
      "conô": 406,
      "out": 407,
      "ado": 408,
      "ada": 409,
      "cri": 410,
      "gran": 411,
      "pl": 412,
      "pre": 413,
      "rado": 414,
      "ind": 415,
      "exporta": 416,
      "parti": 417,
      "sécul": 418,
      "bo": 419,
      "pes": 420,
      "tó": 421,
      "cada": 422,
      "economia": 423,
      "Federal": 424,
      "Sul": 425,
      "fe": 426,
      "val": 427,
      "governo": 428,
      "dé": 429,
      "tes": 430,
      "ass": 431,
      "anos": 432,
      "gua": 433,
      "tivo": 434,
      "25": 435,
      "ano": 436,
      "econô": 437,
      "ge": 438,
      "tas": 439,
      "úb": 440,
      "ração": 441,
      "cidade": 442,
      "dia": 443,
      "veis": 444,
      "30": 445,
      "São": 446,
      "cl": 447,
      "ide": 448,
      "ser": 449,
      "ário": 450,
      "ero": 451,
      "indo": 452,
      "ende": 453,
      "ener": 454,
      "política": 455,
      "Con": 456,
      "bal": 457,
      "fin": 458,
      "ró": 459,
      "ças": 460,
      "rior": 461,
      "seu": 462,
      "segun": 463,
      "século": 464,
      ");": 465,
      "cent": 466,
      "púb": 467,
      "vo": 468,
      "ária": 469,
      "ismo": 470,
      "ino": 471,
      "elei": 472,
      "terri": 473,
      "40": 474,
      "Rio": 475,
      "pal": 476,
      "ase": 477,
      "inda": 478,
      "pais": 479,
      "aneiro": 480,
      "ciais": 481,
      "cionais": 482,
      "tório": 483,
      "23": 484,
      "fun": 485,
      "gan": 486,
      "ito": 487,
      "ja": 488,
      "mos": 489,
      "mul": 490,
      "não": 491,
      "odo": 492,
      "zi": 493,
      "erra": 494,
      "pon": 495,
      "parte": 496,
      "cordo": 497,
      "perí": 498,
      "portugues": 499,
      ").[": 500,
      "IB": 501,
      "am": 502,
      "acordo": 503,
      "ba": 504,
      "bita": 505,
      "cres": 506,
      "nel": 507,
      "rí": 508,
      "tran": 509,
      "ós": 510,
      "inf": 511,
      "qua": 512,
      "dio": 513,
      "setor": 514,
      "mentos": 515,
      "sub": 516,
      "muni": 517,
      "energia": 518,
      "11": 519,
      "Se": 520,
      "cal": 521,
      "clu": 522,
      "gar": 523,
      "ndo": 524,
      "ves": 525,
      "rante": 526,
      "este": 527,
      "envol": 528,
      "ulo": 529,
      "maiores": 530,
      "habita": 531,
      "milita": 532,
      "ização": 533,
      "território": 534,
      "período": 535,
      "Al": 536,
      "Inter": 537,
      "Pe": 538,
      "cha": 539,
      "eta": 540,
      "euro": 541,
      "mica": 542,
      "plo": 543,
      "iste": 544,
      "pan": 545,
      "196": 546,
      "199": 547,
      "estados": 548,
      "forma": 549,
      "stituição": 550,
      "Paulo": 551,
      "che": 552,
      "cípi": 553,
      "ários": 554,
      "colon": 555,
      "34": 556,
      "35": 557,
      "37": 558,
      "Ma": 559,
      "gas": 560,
      "gal": 561,
      "ob": 562,
      "pra": 563,
      "sem": 564,
      "ten": 565,
      "ris": 566,
      "dades": 567,
      "eiros": 568,
      "tonel": 569,
      "segu": 570,
      "respon": 571,
      "poder": 572,
      "2019": 573,
      "foram": 574,
      "até": 575,
      "istas": 576,
      "apenas": 577,
      "outros": 578,
      "segundo": 579,
      "toneladas": 580,
      "39": 581,
      "As": 582,
      "ame": 583,
      "ainda": 584,
      "bre": 585,
      "cra": 586,
      "cerca": 587,
      "ável": 588,
      "dor": 589,
      "espe": 590,
      "rea": 591,
      "atina": 592,
      "stria": 593,
      "manda": 594,
      "Estados": 595,
      "principal": 596,
      "principais": 597,
      "população": 598,
      "Com": 599,
      "istema": 600,
      "21": 601,
      "24": 602,
      "26": 603,
      "28": 604,
      "50": 605,
      "bu": 606,
      "dro": 607,
      "je": 608,
      "nor": 609,
      "vis": 610,
      "via": 611,
      "capa": 612,
      "real": 613,
      "ticas": 614,
      "todos": 615,
      "tugal": 616,
      "ula": 617,
      "deste": 618,
      "cultura": 619,
      "preside": 620,
      "Portugal": 621,
      "influ": 622,
      "27": 623,
      "De": 624,
      "Janeiro": 625,
      "Sa": 626,
      "ban": 627,
      "he": 628,
      "hi": 629,
      "ir": 630,
      "sos": 631,
      "mar": 632,
      "cimento": 633,
      "ini": 634,
      "inha": 635,
      "repres": 636,
      "nou": 637,
      "quis": 638,
      "tual": 639,
      "desde": 640,
      "grande": 641,
      "municípi": 642,
      "29": 643,
      "Ar": 644,
      "Ca": 645,
      "Gu": 646,
      "II": 647,
      "Latina": 648,
      "Lula": 649,
      "Nor": 650,
      "PIB": 651,
      "be": 652,
      "dis": 653,
      "ial": 654,
      "merca": 655,
      "ní": 656,
      "pas": 657,
      "vas": 658,
      "ério": 659,
      "ôn": 660,
      "úm": 661,
      "rito": 662,
      "inst": 663,
      "inclu": 664,
      "entes": 665,
      "diver": 666,
      "difer": 667,
      "importa": 668,
      "vez": 669,
      "produção": 670,
      "stri": 671,
      "cialmente": 672,
      "após": 673,
      "bilhões": 674,
      "primeiro": 675,
      "Estado": 676,
      "Nacional": 677,
      "região": 678,
      "indú": 679,
      ");[": 680,
      "Su": 681,
      "ad": 682,
      "ados": 683,
      "bro": 684,
      "bar": 685,
      "et": 686,
      "eram": 687,
      "fil": 688,
      "lia": 689,
      "ndi": 690,
      "ofi": 691,
      "pu": 692,
      "sul": 693,
      "sistema": 694,
      "vos": 695,
      "és": 696,
      "ício": 697,
      "dem": 698,
      "dep": 699,
      "dores": 700,
      "assi": 701,
      "ores": 702,
      "indu": 703,
      "rel": 704,
      "total": 705,
      "desenvol": 706,
      "198": 707,
      "tornou": 708,
      "istem": 709,
      "possu": 710,
      "leo": 711,
      "está": 712,
      "década": 713,
      "pública": 714,
      "trans": 715,
      "capacidade": 716,
      "Euro": 717,
      "aç": 718,
      "gem": 719,
      "tró": 720,
      "ás": 721,
      "dei": 722,
      "dez": 723,
      "rada": 724,
      "nti": 725,
      "início": 726,
      "ticos": 727,
      "qual": 728,
      "nacionais": 729,
      "comer": 730,
      "tou": 731,
      "seus": 732,
      "uni": 733,
      "arqui": 734,
      "durante": 735,
      "consi": 736,
      "peus": 737,
      "brasileiras": 738,
      "brasileiros": 739,
      "atra": 740,
      "manu": 741,
      "auto": 742,
      "cesso": 743,
      "grandes": 744,
      "indí": 745,
      "econômi": 746,
      "classi": 747,
      "Internacional": 748,
      "europeus": 749,
      "indústria": 750,
      "36": 751,
      "38": 752,
      "Ex": 753,
      "In": 754,
      "cer": 755,
      "dência": 756,
      "inte": 757,
      "mu": 758,
      "mor": 759,
      "men": 760,
      "núm": 761,
      "vés": 762,
      "demo": 763,
      "ori": 764,
      "alta": 765,
      "dire": 766,
      "petró": 767,
      "terc": 768,
      "produtos": 769,
      "posição": 770,
      "cur": 771,
      "tivas": 772,
      "fico": 773,
      "guns": 774,
      "primeira": 775,
      "entanto": 776,
      "minist": 777,
      "Unidos": 778,
      "regim": 779,
      "mesmo": 780,
      "econômica": 781,
      "habitantes": 782,
      "municípios": 783,
      "strial": 784,
      "petróleo": 785,
      "45": 786,
      "Ent": 787,
      "XV": 788,
      "aero": 789,
      "bi": 790,
      "cno": 791,
      "cria": 792,
      "fro": 793,
      "gis": 794,
      "gera": 795,
      "genas": 796,
      "lar": 797,
      "mel": 798,
      "rem": 799,
      "ses": 800,
      "sta": 801,
      "ts": 802,
      "ér": 803,
      "escra": 804,
      "além": 805,
      "erna": 806,
      "empres": 807,
      "tado": 808,
      "indep": 809,
      "tico": 810,
      "ela": 811,
      "pera": 812,
      "olí": 813,
      "estão": 814,
      "erais": 815,
      "outras": 816,
      "partir": 817,
      "Pedro": 818,
      "presidente": 819,
      "instal": 820,
      "industrial": 821,
      "arquite": 822,
      "gisla": 823,
      "Jo": 824,
      "Mun": 825,
      "Qu": 826,
      "bol": 827,
      "cente": 828,
      "gru": 829,
      "iu": 830,
      "lon": 831,
      "pei": 832,
      "sica": 833,
      "tê": 834,
      "tendo": 835,
      "cido": 836,
      "cias": 837,
      "rela": 838,
      "tido": 839,
      "tivi": 840,
      "eiras": 841,
      "teve": 842,
      "anal": 843,
      "const": 844,
      "conhe": 845,
      "suas": 846,
      "rando": 847,
      "vimento": 848,
      "atin": 849,
      "produtores": 850,
      "União": 851,
      "crise": 852,
      "assim": 853,
      "crescimento": 854,
      "america": 855,
      "quisa": 856,
      "mercado": 857,
      "através": 858,
      "indígenas": 859,
      "classifica": 860,
      "empresas": 861,
      "constru": 862,
      "44": 863,
      "60": 864,
      "Ama": 865,
      "For": 866,
      "Gran": 867,
      "XI": 868,
      "ber": 869,
      "fu": 870,
      "frica": 871,
      "gres": 872,
      "int": 873,
      "lor": 874,
      "lti": 875,
      "rês": 876,
      "tros": 877,
      "ço": 878,
      "ços": 879,
      "ôni": 880,
      "úde": 881,
      "úcar": 882,
      "últi": 883,
      "esse": 884,
      "organ": 885,
      "rin": 886,
      "tax": 887,
      "inas": 888,
      "rece": 889,
      "quase": 890,
      "encia": 891,
      "dica": 892,
      "dições": 893,
      "tua": 894,
      "terior": 895,
      "tecno": 896,
      "sumi": 897,
      "197": 898,
      "exem": 899,
      "sobre": 900,
      "varia": 901,
      "rança": 902,
      "imi": 903,
      "impe": 904,
      "istrito": 905,
      "loca": 906,
      "izado": 907,
      "legisla": 908,
      "lugar": 909,
      "fici": 910,
      "governa": 911,
      "bilidade": 912,
      "internacional": 913,
      "internacionais": 914,
      "português": 915,
      "exportações": 916,
      "finan": 917,
      "funda": 918,
      "portuguesa": 919,
      "militar": 920,
      "ônia": 921,
      "açúcar": 922,
      "número": 923,
      "regime": 924,
      "Entre": 925,
      "front": 926,
      "arquitetura": 927,
      "tividade": 928,
      ").": 929,
      "Distrito": 930,
      "Polí": 931,
      "aca": 932,
      "atual": 933,
      "base": 934,
      "cre": 935,
      "dó": 936,
      "fede": 937,
      "glo": 938,
      "gens": 939,
      "hor": 940,
      "lei": 941,
      "mú": 942,
      "mei": 943,
      "nda": 944,
      "pita": 945,
      "ré": 946,
      "sas": 947,
      "til": 948,
      "área": 949,
      "esti": 950,
      "rie": 951,
      "alguns": 952,
      "mado": 953,
      "mada": 954,
      "ement": 955,
      "rom": 956,
      "nova": 957,
      "nome": 958,
      "dios": 959,
      "tural": 960,
      "pot": 961,
      "2022": 962,
      "sur": 963,
      "mobil": 964,
      "tores": 965,
      "pelas": 966,
      "pelos": 967,
      "produzi": 968,
      "estado": 969,
      "ências": 970,
      "lín": 971,
      "ticamente": 972,
      "corre": 973,
      "tivos": 974,
      "100": 975,
      "abri": 976,
      "rás": 977,
      "popular": 978,
      "árias": 979,
      "regiões": 980,
      "exportação": 981,
      "geral": 982,
      "Constituição": 983,
      "públi": 984,
      "portugueses": 985,
      "militares": 986,
      "respons": 987,
      "administ": 988,
      "possui": 989,
      "conside": 990,
      "manufa": 991,
      "terceiro": 992,
      "cursos": 993,
      "Mundial": 994,
      "têm": 995,
      "exemplo": 996,
      "Polícia": 997,
      "31": 998,
      "77": 999,
      "Ch": 1000,
      "Du": 1001,
      "Ju": 1002,
      "Po": 1003,
      "Par": 1004,
      "Vi": 1005,
      "Var": 1006,
      "ares": 1007,
      "apo": 1008,
      "africa": 1009,
      "bio": 1010,
      "cen": 1011,
      "cel": 1012,
      "crá": 1013,
      "drel": 1014,
      "fei": 1015,
      "fim": 1016,
      "fab": 1017,
      "gos": 1018,
      "gre": 1019,
      "grá": 1020,
      "hão": 1021,
      "hist": 1022,
      "já": 1023,
      "pró": 1024,
      "três": 1025,
      "vem": 1026,
      "ven": 1027,
      "van": 1028,
      "áveis": 1029,
      "ân": 1030,
      "ét": 1031,
      "índi": 1032,
      "nta": 1033,
      "ricultura": 1034,
      "dados": 1035,
      "cin": 1036,
      "cara": 1037,
      "embo": 1038,
      "rei": 1039,
      "quando": 1040,
      "comér": 1041,
      "dici": 1042,
      "todo": 1043,
      "resul": 1044,
      "2018": 1045,
      "2014": 1046,
      "exer": 1047,
      "maioria": 1048,
      "fontes": 1049,
      "vido": 1050,
      "atrás": 1051,
      "stas": 1052,
      "lares": 1053,
      "180": 1054,
      "forte": 1055,
      "formas": 1056,
      "pital": 1057,
      "trabal": 1058,
      "ferro": 1059,
      "plan": 1060,
      "partici": 1061,
      "pesso": 1062,
      "pesquisa": 1063,
      "valia": 1064,
      "quanto": 1065,
      "chega": 1066,
      "colonial": 1067,
      "semi": 1068,
      "influencia": 1069,
      "hidrel": 1070,
      "representa": 1071,
      "Europa": 1072,
      "mortes": 1073,
      "direito": 1074,
      "instalada": 1075,
      "João": 1076,
      "atingi": 1077,
      "Amaz": 1078,
      "Grande": 1079,
      "XIX": 1080,
      "imigra": 1081,
      "dólares": 1082,
      "música": 1083,
      "Vargas": 1084,
      "histó": 1085,
      "comércio": 1086,
      "%,": 1087,
      "32": 1088,
      "94": 1089,
      "Emb": 1090,
      "Ferna": 1091,
      "Im": 1092,
      "Pro": 1093,
      "Ro": 1094,
      "Tra": 1095,
      "aos": 1096,
      "apro": 1097,
      "amb": 1098,
      "avalia": 1099,
      "bele": 1100,
      "cla": 1101,
      "dão": 1102,
      "ecu": 1103,
      "fé": 1104,
      "fis": 1105,
      "federal": 1106,
      "gum": 1107,
      "gni": 1108,
      "ix": 1109,
      "ições": 1110,
      "jo": 1111,
      "km": 1112,
      "sal": 1113,
      "sões": 1114,
      "ur": 1115,
      "áre": 1116,
      "âni": 1117,
      "ícul": 1118,
      "ível": 1119,
      "ília": 1120,
      "óveis": 1121,
      "depo": 1122,
      "demanda": 1123,
      "dois": 1124,
      "assumi": 1125,
      "rina": 1126,
      "ribu": 1127,
      "ristas": 1128,
      "eros": 1129,
      "cam": 1130,
      "capital": 1131,
      "café": 1132,
      "emp": 1133,
      "reno": 1134,
      "então": 1135,
      "quar": 1136,
      "natural": 1137,
      "ene": 1138,
      "endência": 1139,
      "pou": 1140,
      "pode": 1141,
      "2020": 1142,
      "2010": 1143,
      "2021": 1144,
      "processo": 1145,
      "duzi": 1146,
      "desta": 1147,
      "constitu": 1148,
      "constituição": 1149,
      "ouro": 1150,
      "peti": 1151,
      "vam": 1152,
      "torna": 1153,
      "guerra": 1154,
      "mundia": 1155,
      "termos": 1156,
      "sido": 1157,
      "posterior": 1158,
      "logia": 1159,
      "saúde": 1160,
      "média": 1161,
      "grama": 1162,
      "volu": 1163,
      "neg": 1164,
      "contra": 1165,
      "tivamente": 1166,
      "valor": 1167,
      "guai": 1168,
      "eleito": 1169,
      "eleições": 1170,
      "especial": 1171,
      "norte": 1172,
      "disso": 1173,
      "níveis": 1174,
      "diferentes": 1175,
      "oficial": 1176,
      "comercial": 1177,
      "ficou": 1178,
      "longo": 1179,
      "gresso": 1180,
      "financ": 1181,
      "responsável": 1182,
      "embora": 1183,
      "áreas": 1184,
      "depois": 1185,
      "mundiais": 1186,
      "%)": 1187,
      "42": 1188,
      "58": 1189,
      "70": 1190,
      "75": 1191,
      "Ale": 1192,
      "Ban": 1193,
      "Cent": 1194,
      "Do": 1195,
      "Fun": 1196,
      "Fede": 1197,
      "MW": 1198,
      "Mo": 1199,
      "Mer": 1200,
      "Mel": 1201,
      "Or": 1202,
      "Per": 1203,
      "ais": 1204,
      "bri": 1205,
      "blica": 1206,
      "cli": 1207,
      "cede": 1208,
      "eó": 1209,
      "equi": 1210,
      "gica": 1211,
      "has": 1212,
      "her": 1213,
      "janeiro": 1214,
      "mal": 1215,
      "ocu": 1216,
      "pé": 1217,
      "té": 1218,
      "vários": 1219,
      "xi": 1220,
      "rais": 1221,
      "rados": 1222,
      "estu": 1223,
      "rias": 1224,
      "dan": 1225,
      "algum": 1226,
      "mant": 1227,
      "madas": 1228,
      "cios": 1229,
      "cine": 1230,
      "can": 1231,
      "cadas": 1232,
      "capita": 1233,
      "nol": 1234,
      "enças": 1235,
      "come": 1236,
      "eli": 1237,
      "eles": 1238,
      "dita": 1239,
      "divi": 1240,
      "tur": 1241,
      "turistas": 1242,
      "reser": 1243,
      "anu": 1244,
      "onde": 1245,
      "concent": 1246,
      "condições": 1247,
      "supe": 1248,
      "movi": 1249,
      "1950": 1250,
      "ext": 1251,
      "explo": 1252,
      "pec": 1253,
      "peração": 1254,
      "vação": 1255,
      "torial": 1256,
      "guas": 1257,
      "terra": 1258,
      "signi": 1259,
      "veícul": 1260,
      "medi": 1261,
      "metros": 1262,
      "),[": 1263,
      "estabele": 1264,
      "izou": 1265,
      "tempo": 1266,
      "hoje": 1267,
      "políticas": 1268,
      "aux": 1269,
      "trou": 1270,
      "faz": 1271,
      "agricultura": 1272,
      "triz": 1273,
      "regist": 1274,
      "000": 1275,
      "ensino": 1276,
      "plement": 1277,
      "déci": 1278,
      "final": 1279,
      "etanol": 1280,
      "1990": 1281,
      "responde": 1282,
      "principalmente": 1283,
      "Guerra": 1284,
      "Norte": 1285,
      "Nordeste": 1286,
      "passa": 1287,
      "publica": 1288,
      "integra": 1289,
      "menos": 1290,
      "XVI": 1291,
      "geração": 1292,
      "grupos": 1293,
      "global": 1294,
      "meio": 1295,
      "potência": 1296,
      "manufatura": 1297,
      "China": 1298,
      "Durante": 1299,
      "Partido": 1300,
      "Vicente": 1301,
      "própri": 1302,
      "étrica": 1303,
      "cinco": 1304,
      "diciário": 1305,
      "planeta": 1306,
      "participa": 1307,
      "pessoas": 1308,
      "clima": 1309,
      "cinema": 1310,
      "dividi": 1311,
      "significa": 1312,
      "33": 1313,
      "49": 1314,
      "55": 1315,
      "72": 1316,
      "73": 1317,
      "89": 1318,
      ";[": 1319,
      "BR": 1320,
      "Ba": 1321,
      "Bras": 1322,
      "Bol": 1323,
      "Col": 1324,
      "En": 1325,
      "GE": 1326,
      "Gerais": 1327,
      "Minas": 1328,
      "Pes": 1329,
      "US": 1330,
      "aça": 1331,
      "bl": 1332,
      "cei": 1333,
      "fal": 1334,
      "fre": 1335,
      "fran": 1336,
      "falta": 1337,
      "ger": 1338,
      "gou": 1339,
      "gol": 1340,
      "gás": 1341,
      "hos": 1342,
      "imobil": 1343,
      "jor": 1344,
      "lan": 1345,
      "lista": 1346,
      "mí": 1347,
      "mina": 1348,
      "ncial": 1349,
      "onais": 1350,
      "pass": 1351,
      "sel": 1352,
      "sia": 1353,
      "sistem": 1354,
      "tele": 1355,
      "tinha": 1356,
      "uc": 1357,
      "za": 1358,
      "às": 1359,
      "ácio": 1360,
      "étri": 1361,
      "ín": 1362,
      "ór": 1363,
      "úni": 1364,
      "rar": 1365,
      "rios": 1366,
      "ali": 1367,
      "cida": 1368,
      "cana": 1369,
      "emer": 1370,
      "emis": 1371,
      "tar": 1372,
      "institu": 1373,
      "inves": 1374,
      "indica": 1375,
      "reces": 1376,
      "renda": 1377,
      "recursos": 1378,
      "papel": 1379,
      "pacial": 1380,
      "quer": 1381,
      "quil": 1382,
      "quat": 1383,
      "nado": 1384,
      "nação": 1385,
      "nações": 1386,
      "naves": 1387,
      "enquanto": 1388,
      "comun": 1389,
      "compra": 1390,
      "competi": 1391,
      "elo": 1392,
      "toda": 1393,
      "todas": 1394,
      "seja": 1395,
      "turas": 1396,
      "porte": 1397,
      "tera": 1398,
      "Brasileiro": 1399,
      "Brasileira": 1400,
      "2013": 1401,
      "onet": 1402,
      "ística": 1403,
      "propor": 1404,
      "duca": 1405,
      "moder": 1406,
      "exter": 1407,
      "outro": 1408,
      "somente": 1409,
      "social": 1410,
      "vais": 1411,
      "tori": 1412,
      "raná": 1413,
      "vida": 1414,
      "produz": 1415,
      "lio": 1416,
      "stível": 1417,
      "posi": 1418,
      "local": 1419,
      "gião": 1420,
      "cosul": 1421,
      "força": 1422,
      "iza": 1423,
      "ruto": 1424,
      "cuária": 1425,
      "nomina": 1426,
      "governos": 1427,
      "políticos": 1428,
      "2007": 1429,
      "2008": 1430,
      "agrí": 1431,
      "Para": 1432,
      "contro": 1433,
      "República": 1434,
      "Congresso": 1435,
      "segunda": 1436,
      "ganização": 1437,
      "IBGE": 1438,
      "Segun": 1439,
      "Além": 1440,
      "europei": 1441,
      "panha": 1442,
      "1960": 1443,
      "obje": 1444,
      "rismo": 1445,
      "visão": 1446,
      "incluindo": 1447,
      "diversi": 1448,
      "filmes": 1449,
      "oficialmente": 1450,
      "desenvolvimento": 1451,
      "comerciais": 1452,
      "econômico": 1453,
      "democrá": 1454,
      "aeronaves": 1455,
      "escravos": 1456,
      "independe": 1457,
      "independência": 1458,
      "americano": 1459,
      "classificado": 1460,
      "fronteira": 1461,
      "carac": 1462,
      "imigrantes": 1463,
      "história": 1464,
      "Fernando": 1465,
      "ambi": 1466,
      "ecutivo": 1467,
      "quarto": 1468,
      "volução": 1469,
      "negó": 1470,
      "Mercosul": 1471,
      "Organização": 1472,
      "ocupa": 1473,
      "algumas": 1474,
      "reservas": 1475,
      "superior": 1476,
      "veículos": 1477,
      "imobili": 1478,
      "quatro": 1479,
      "objetivo": 1480,
      "%),": 1481,
      "65": 1482,
      "71": 1483,
      "80": 1484,
      "88": 1485,
      "An": 1486,
      "At": 1487,
      "Ame": 1488,
      "Di": 1489,
      "Des": 1490,
      "Fran": 1491,
      "GW": 1492,
      "Go": 1493,
      "Mé": 1494,
      "OM": 1495,
      "So": 1496,
      "XX": 1497,
      "bem": 1498,
      "bras": 1499,
      "bun": 1500,
      "bruto": 1501,
      "cro": 1502,
      "cendo": 1503,
      "dá": 1504,
      "dun": 1505,
      "efe": 1506,
      "fes": 1507,
      "fério": 1508,
      "gé": 1509,
      "gent": 1510,
      "idio": 1511,
      "lâ": 1512,
      "ló": 1513,
      "les": 1514,
      "ora": 1515,
      "ona": 1516,
      "pção": 1517,
      "pla": 1518,
      "pério": 1519,
      "rência": 1520,
      "só": 1521,
      "ár": 1522,
      "água": 1523,
      "ália": 1524,
      "çou": 1525,
      "êmi": 1526,
      "dent": 1527,
      "defin": 1528,
      "devido": 1529,
      "rant": 1530,
      "rativa": 1531,
      "ntos": 1532,
      "ridade": 1533,
      "alto": 1534,
      "cies": 1535,
      "cau": 1536,
      "embro": 1537,
      "tação": 1538,
      "tados": 1539,
      "tamento": 1540,
      "tanto": 1541,
      "ing": 1542,
      "inal": 1543,
      "incent": 1544,
      "reli": 1545,
      "entou": 1546,
      "quia": 1547,
      "nar": 1548,
      "combu": 1549,
      "diu": 1550,
      "dição": 1551,
      "turismo": 1552,
      "portos": 1553,
      "mental": 1554,
      "tebol": 1555,
      "art": 1556,
      "arre": 1557,
      "queda": 1558,
      "2015": 1559,
      "2016": 1560,
      "2023": 1561,
      "onas": 1562,
      "promul": 1563,
      "programa": 1564,
      "dest": 1565,
      "desco": 1566,
      "dessa": 1567,
      "mou": 1568,
      "modi": 1569,
      "exi": 1570,
      "extra": 1571,
      "expan": 1572,
      "exten": 1573,
      "sob": 1574,
      "sona": 1575,
      "sociais": 1576,
      "guar": 1577,
      "impos": 1578,
      "implement": 1579,
      "ató": 1580,
      "riamente": 1581,
      "milhão": 1582,
      "siva": 1583,
      "sidades": 1584,
      "situa": 1585,
      "produto": 1586,
      "mbu": 1587,
      "parc": 1588,
      "lado": 1589,
      "posta": 1590,
      "giu": 1591,
      "estas": 1592,
      "estil": 1593,
      "corrência": 1594,
      "manha": 1595,
      "médio": 1596,
      "stiça": 1597,
      "carne": 1598,
      "volta": 1599,
      "2000": 1600,
      "primeiros": 1601,
      "talia": 1602,
      "minerais": 1603,
      "Porto": 1604,
      "colas": 1605,
      "colônia": 1606,
      "Reino": 1607,
      "preende": 1608,
      "rador": 1609,
      "exportador": 1610,
      "séculos": 1611,
      "décadas": 1612,
      "servi": 1613,
      "amer": 1614,
      "baix": 1615,
      "cresce": 1616,
      "transi": 1617,
      "munici": 1618,
      "panh": 1619,
      "praticamente": 1620,
      "segui": 1621,
      "especialmente": 1622,
      "mandato": 1623,
      "influência": 1624,
      "Santa": 1625,
      "inicia": 1626,
      "Argent": 1627,
      "Guia": 1628,
      "importante": 1629,
      "barris": 1630,
      "deira": 1631,
      "ntico": 1632,
      "univer": 1633,
      "interior": 1634,
      "criação": 1635,
      "remo": 1636,
      "escravi": 1637,
      "conhecido": 1638,
      "construção": 1639,
      "últimos": 1640,
      "rinha": 1641,
      "taxa": 1642,
      "taxas": 1643,
      "recebe": 1644,
      "tecnologia": 1645,
      "locais": 1646,
      "ficiência": 1647,
      "riedade": 1648,
      "língua": 1649,
      "1808": 1650,
      "assumiu": 1651,
      "Alemanha": 1652,
      "Melhor": 1653,
      "décimo": 1654,
      "manufaturados": 1655,
      "Brasília": 1656,
      "golpe": 1657,
      "sistemas": 1658,
      "ucle": 1659,
      "único": 1660,
      "alimentos": 1661,
      "emisfério": 1662,
      "investi": 1663,
      "recessão": 1664,
      "modern": 1665,
      "America": 1666,
      "bunal": 1667,
      "incenti": 1668,
      "combustível": 1669,
      "Argentina": 1670,
      "\",": 1671,
      "\".": 1672,
      "%.[": 1673,
      "41": 1674,
      "43": 1675,
      "46": 1676,
      "48": 1677,
      "54": 1678,
      "61": 1679,
      "67": 1680,
      "74": 1681,
      "96": 1682,
      "98": 1683,
      "Apes": 1684,
      "Econô": 1685,
      "Glo": 1686,
      "It": 1687,
      "Ita": 1688,
      "Jos": 1689,
      "Li": 1690,
      "Lis": 1691,
      "Lei": 1692,
      "Mar": 1693,
      "NA": 1694,
      "Ne": 1695,
      "Nos": 1696,
      "Ou": 1697,
      "Perna": 1698,
      "Ta": 1699,
      "Tri": 1700,
      "Terra": 1701,
      "Uru": 1702,
      "VI": 1703,
      "Vene": 1704,
      "az": 1705,
      "aci": 1706,
      "ante": 1707,
      "bens": 1708,
      "cum": 1709,
      "crí": 1710,
      "fra": 1711,
      "fos": 1712,
      "flor": 1713,
      "gen": 1714,
      "gação": 1715,
      "hou": 1716,
      "ima": 1717,
      "môni": 1718,
      "nsa": 1719,
      "nses": 1720,
      "nucle": 1721,
      "oita": 1722,
      "oito": 1723,
      "oeste": 1724,
      "pí": 1725,
      "pós": 1726,
      "sí": 1727,
      "sina": 1728,
      "uso": 1729,
      "ugu": 1730,
      "uela": 1731,
      "vil": 1732,
      "vista": 1733,
      "zuela": 1734,
      "Ásia": 1735,
      "érea": 1736,
      "ído": 1737,
      "deci": 1738,
      "decla": 1739,
      "denomina": 1740,
      "dovi": 1741,
      "espor": 1742,
      "esar": 1743,
      "essa": 1744,
      "espé": 1745,
      "cou": 1746,
      "coro": 1747,
      "oria": 1748,
      "osto": 1749,
      "dar": 1750,
      "dantes": 1751,
      "alem": 1752,
      "alcan": 1753,
      "mari": 1754,
      "cion": 1755,
      "tais": 1756,
      "rou": 1757,
      "roco": 1758,
      "rodovi": 1759,
      "inária": 1760,
      "reb": 1761,
      "recu": 1762,
      "república": 1763,
      "reformas": 1764,
      "entos": 1765,
      "ties": 1766,
      "titu": 1767,
      "not": 1768,
      "quel": 1769,
      "quele": 1770,
      "natura": 1771,
      "nativa": 1772,
      "commodi": 1773,
      "sequ": 1774,
      "tubro": 1775,
      "restri": 1776,
      "respec": 1777,
      "teg": 1778,
      "podem": 1779,
      "armente": 1780,
      "2017": 1781,
      "2011": 1782,
      "desi": 1783,
      "desemp": 1784,
      "conqu": 1785,
      "consegu": 1786,
      "sucesso": 1787,
      "1930": 1788,
      "exa": 1789,
      "expe": 1790,
      "expres": 1791,
      "exce": 1792,
      "existem": 1793,
      "executivo": 1794,
      "outubro": 1795,
      "petro": 1796,
      "perado": 1797,
      "pecuária": 1798,
      "soja": 1799,
      "solar": 1800,
      "vado": 1801,
      "variedade": 1802,
      "maio": 1803,
      "oli": 1804,
      "vice": 1805,
      "imóveis": 1806,
      "milia": 1807,
      "nio": 1808,
      "lide": 1809,
      "litera": 1810,
      "partes": 1811,
      "meados": 1812,
      "inaugu": 1813,
      "culinária": 1814,
      "estadu": 1815,
      "estabilidade": 1816,
      "estadun": 1817,
      "forne": 1818,
      "Espanha": 1819,
      "izada": 1820,
      "izados": 1821,
      "rutura": 1822,
      "çamento": 1823,
      "estrutura": 1824,
      "pical": 1825,
      "1500": 1826,
      "gado": 1827,
      "garant": 1828,
      "micí": 1829,
      "eração": 1830,
      "ficada": 1831,
      "160": 1832,
      "tropical": 1833,
      "130": 1834,
      "fatores": 1835,
      "ncipe": 1836,
      "2002": 1837,
      "2006": 1838,
      "2009": 1839,
      "agro": 1840,
      "agosto": 1841,
      "Paraná": 1842,
      "série": 1843,
      "contin": 1844,
      "massa": 1845,
      "Oscar": 1846,
      "meses": 1847,
      "junto": 1848,
      "judiciário": 1849,
      "regionais": 1850,
      "prensa": 1851,
      "boa": 1852,
      "bov": 1853,
      "feras": 1854,
      "idenses": 1855,
      "eleição": 1856,
      "409": 1857,
      "ríncipe": 1858,
      "quais": 1859,
      "Senado": 1860,
      "1964": 1861,
      "354": 1862,
      "tenção": 1863,
      "segurança": 1864,
      "ameaça": 1865,
      "viam": 1866,
      "realismo": 1867,
      "presidencial": 1868,
      "Santo": 1869,
      "inici": 1870,
      "Cata": 1871,
      "III": 1872,
      "ônica": 1873,
      "inclui": 1874,
      "diversas": 1875,
      "diferenças": 1876,
      "vezes": 1877,
      "Sudeste": 1878,
      "demia": 1879,
      "desenvolve": 1880,
      "1988": 1881,
      "transporte": 1882,
      "Europei": 1883,
      "qualidade": 1884,
      "qualquer": 1885,
      "manutenção": 1886,
      "autom": 1887,
      "econômicas": 1888,
      "Existem": 1889,
      "Institu": 1890,
      "menor": 1891,
      "origem": 1892,
      "grupo": 1893,
      "relação": 1894,
      "intro": 1895,
      "tecnoló": 1896,
      "imperador": 1897,
      "fundamental": 1898,
      "fronteiras": 1899,
      "produziu": 1900,
      "línguas": 1901,
      "abril": 1902,
      "públicas": 1903,
      "considerado": 1904,
      "africanos": 1905,
      "censo": 1906,
      "ância": 1907,
      "reiras": 1908,
      "trabalho": 1909,
      "chegada": 1910,
      "hidrelétrica": 1911,
      "hidrelétri": 1912,
      "Amazonas": 1913,
      "Trabal": 1914,
      "avaliados": 1915,
      "renov": 1916,
      "pouco": 1917,
      "posteriores": 1918,
      "Banco": 1919,
      "Centro": 1920,
      "eólica": 1921,
      "danças": 1922,
      "começa": 1923,
      "anual": 1924,
      "extens": 1925,
      "medidas": 1926,
      "troux": 1927,
      "Bolsona": 1928,
      "selva": 1929,
      "televisão": 1930,
      "competitividade": 1931,
      "onetário": 1932,
      "proporção": 1933,
      "controle": 1934,
      "Segundo": 1935,
      "europeias": 1936,
      "independente": 1937,
      "Atlâ": 1938,
      "Dire": 1939,
      "Desde": 1940,
      "idioma": 1941,
      "atório": 1942,
      "serviços": 1943,
      "ameríndi": 1944,
      "transição": 1945,
      "municipais": 1946,
      "Guiana": 1947,
      "Apesar": 1948,
      "Itália": 1949,
      "José": 1950,
      "Pernambu": 1951,
      "Tribunal": 1952,
      "Uruguai": 1953,
      "Venezuela": 1954,
      "pírito": 1955,
      "espécies": 1956,
      "commodities": 1957,
      "desempen": 1958,
      "estadunidenses": 1959,
      "Europeia": 1960,
      "Bolsonaro": 1961,
      "47": 1962,
      "51": 1963,
      "59": 1964,
      "68": 1965,
      "69": 1966,
      "78": 1967,
      "82": 1968,
      "84": 1969,
      "90": 1970,
      "91": 1971,
      "97": 1972,
      "99": 1973,
      "Ag": 1974,
      "Ainda": 1975,
      "Atual": 1976,
      "Após": 1977,
      "CP": 1978,
      "CS": 1979,
      "Ci": 1980,
      "Cin": 1981,
      "Car": 1982,
      "Cru": 1983,
      "Cab": 1984,
      "Dem": 1985,
      "Equ": 1986,
      "Fil": 1987,
      "Flor": 1988,
      "Fór": 1989,
      "Gru": 1990,
      "Há": 1991,
      "Hemisfério": 1992,
      "IS": 1993,
      "ICS": 1994,
      "Je": 1995,
      "Já": 1996,
      "Ku": 1997,
      "Le": 1998,
      "Merca": 1999,
      "Monetário": 2000,
      "Oeste": 2001,
      "Pi": 2002,
      "Pal": 2003,
      "Pla": 2004,
      "Rou": 2005,
      "Sal": 2006,
      "Sistema": 2007,
      "TC": 2008,
      "Tor": 2009,
      "Tran": 2010,
      "UTC": 2011,
      "ate": 2012,
      "apres": 2013,
      "antes": 2014,
      "anti": 2015,
      "atividade": 2016,
      "bé": 2017,
      "bas": 2018,
      "bran": 2019,
      "bendo": 2020,
      "có": 2021,
      "clo": 2022,
      "cende": 2023,
      "cré": 2024,
      "dist": 2025,
      "ev": 2026,
      "edade": 2027,
      "educa": 2028,
      "ff": 2029,
      "fia": 2030,
      "fli": 2031,
      "flu": 2032,
      "gram": 2033,
      "gente": 2034,
      "hia": 2035,
      "hando": 2036,
      "hores": 2037,
      "itas": 2038,
      "idência": 2039,
      "lin": 2040,
      "mis": 2041,
      "nica": 2042,
      "odos": 2043,
      "ofer": 2044,
      "opera": 2045,
      "operação": 2046,
      "oposi": 2047,
      "pó": 2048,
      "põ": 2049,
      "pré": 2050,
      "premo": 2051,
      "príncipe": 2052,
      "rêmi": 2053,
      "sen": 2054,
      "sse": 2055,
      "son": 2056,
      "tina": 2057,
      "uí": 2058,
      "uta": 2059,
      "util": 2060,
      "vor": 2061,
      "vin": 2062,
      "ática": 2063,
      "âmb": 2064,
      "ãos": 2065,
      "ída": 2066,
      "ídas": 2067,
      "íram": 2068,
      "ômb": 2069,
      "deu": 2070,
      "deter": 2071,
      "decorre": 2072,
      "decorrência": 2073,
      "raz": 2074,
      "raestrutura": 2075,
      "dou": 2076,
      "escri": 2077,
      "espacial": 2078,
      "cob": 2079,
      "cola": 2080,
      "coloca": 2081,
      "asso": 2082,
      "ntu": 2083,
      "ordem": 2084,
      "osa": 2085,
      "ose": 2086,
      "rique": 2087,
      "ricos": 2088,
      "dação": 2089,
      "alter": 2090,
      "erras": 2091,
      "mam": 2092,
      "mados": 2093,
      "mante": 2094,
      "cir": 2095,
      "cis": 2096,
      "cito": 2097,
      "cidas": 2098,
      "cidades": 2099,
      "civis": 2100,
      "ciclo": 2101,
      "categ": 2102,
      "isti": 2103,
      "isso": 2104,
      "emb": 2105,
      "emas": 2106,
      "tada": 2107,
      "tadas": 2108,
      "ilia": 2109,
      "ilha": 2110,
      "ilhas": 2111,
      "inz": 2112,
      "inos": 2113,
      "insta": 2114,
      "ref": 2115,
      "reban": 2116,
      "reduzi": 2117,
      "recei": 2118,
      "paul": 2119,
      "paridade": 2120,
      "enti": 2121,
      "ental": 2122,
      "timo": 2123,
      "novo": 2124,
      "novos": 2125,
      "quí": 2126,
      "nagem": 2127,
      "nadá": 2128,
      "ença": 2129,
      "comp": 2130,
      "comum": 2131,
      "compl": 2132,
      "dicionais": 2133,
      "top": 2134,
      "toral": 2135,
      "setem": 2136,
      "tus": 2137,
      "ultra": 2138,
      "ulose": 2139,
      "porém": 2140,
      "mentou": 2141,
      "teria": 2142,
      "iais": 2143,
      "poli": 2144,
      "ponto": 2145,
      "poten": 2146,
      "povos": 2147,
      "arte": 2148,
      "artes": 2149,
      "204": 2150,
      "oneiro": 2151,
      "ísticas": 2152,
      "ísticos": 2153,
      "promo": 2154,
      "procu": 2155,
      "probl": 2156,
      "dura": 2157,
      "duas": 2158,
      "dução": 2159,
      "desse": 2160,
      "descende": 2161,
      "confli": 2162,
      "sui": 2163,
      "suces": 2164,
      "mode": 2165,
      "momento": 2166,
      "movimento": 2167,
      "193": 2168,
      "194": 2169,
      "1945": 2170,
      "icais": 2171,
      "vada": 2172,
      "gual": 2173,
      "vit": 2174,
      "vidos": 2175,
      "vidas": 2176,
      "imprensa": 2177,
      "hadores": 2178,
      "atribu": 2179,
      "terreno": 2180,
      "licos": 2181,
      "verno": 2182,
      "mega": 2183,
      "istência": 2184,
      "posto": 2185,
      "giram": 2186,
      "presidência": 2187,
      "costa": 2188,
      "1822": 2189,
      "forme": 2190,
      "Espírito": 2191,
      "leis": 2192,
      "líder": 2193,
      "rupção": 2194,
      "cujo": 2195,
      "estende": 2196,
      "corte": 2197,
      "fir": 2198,
      "150": 2199,
      "aber": 2200,
      "abil": 2201,
      "gada": 2202,
      "mico": 2203,
      "permi": 2204,
      "147": 2205,
      "derro": 2206,
      "derável": 2207,
      "homicí": 2208,
      "usinas": 2209,
      "apesar": 2210,
      "ficado": 2211,
      "político": 2212,
      "161": 2213,
      "aumento": 2214,
      "autori": 2215,
      "trobras": 2216,
      "cargo": 2217,
      "fato": 2218,
      "fator": 2219,
      "familia": 2220,
      "2005": 2221,
      "neces": 2222,
      "primeiras": 2223,
      "cesa": 2224,
      "agem": 2225,
      "agre": 2226,
      "interno": 2227,
      "interna": 2228,
      "tricidade": 2229,
      "tribu": 2230,
      "Novo": 2231,
      "minu": 2232,
      "minério": 2233,
      "mineração": 2234,
      "Unido": 2235,
      "populares": 2236,
      "Como": 2237,
      "Nações": 2238,
      "Porém": 2239,
      "Portugu": 2240,
      "Revolução": 2241,
      "quinto": 2242,
      "eletricidade": 2243,
      "jurí": 2244,
      "juris": 2245,
      "ador": 2246,
      "partidos": 2247,
      "fecha": 2248,
      "valores": 2249,
      "clás": 2250,
      "serem": 2251,
      "energé": 2252,
      "Confede": 2253,
      "central": 2254,
      "voto": 2255,
      "territorial": 2256,
      "mulher": 2257,
      "ampla": 2258,
      "crescente": 2259,
      "infraestrutura": 2260,
      "habitats": 2261,
      "Alguns": 2262,
      "Interna": 2263,
      "chamado": 2264,
      "chamada": 2265,
      "chek": 2266,
      "chegou": 2267,
      "colonização": 2268,
      "colonizado": 2269,
      "obri": 2270,
      "tenha": 2271,
      "Ass": 2272,
      "cracia": 2273,
      "nordeste": 2274,
      "quisas": 2275,
      "município": 2276,
      "Armadas": 2277,
      "Canadá": 2278,
      "nível": 2279,
      "incluem": 2280,
      "importações": 2281,
      "importantes": 2282,
      "Supremo": 2283,
      "possuem": 2284,
      "aço": 2285,
      "dezembro": 2286,
      "unidades": 2287,
      "considerável": 2288,
      "econômicos": 2289,
      "Exér": 2290,
      "muito": 2291,
      "mudanças": 2292,
      "demográ": 2293,
      "aeroportos": 2294,
      "bits": 2295,
      "industrialização": 2296,
      "Quando": 2297,
      "analfab": 2298,
      "classificação": 2299,
      "Força": 2300,
      "Forças": 2301,
      "futebol": 2302,
      "organização": 2303,
      "recebendo": 2304,
      "legislativo": 2305,
      "governadores": 2306,
      "acad": 2307,
      "federais": 2308,
      "rompi": 2309,
      "surgiu": 2310,
      "correu": 2311,
      "geralmente": 2312,
      "públicos": 2313,
      "administra": 2314,
      "Justiça": 2315,
      "apoio": 2316,
      "celulose": 2317,
      "fabrica": 2318,
      "índice": 2319,
      "resultado": 2320,
      "semiári": 2321,
      "influenciada": 2322,
      "Amazônica": 2323,
      "Embra": 2324,
      "Embora": 2325,
      "Império": 2326,
      "aprovação": 2327,
      "ânio": 2328,
      "tornando": 2329,
      "financeiros": 2330,
      "Fundo": 2331,
      "Federação": 2332,
      "Peru": 2333,
      "xico": 2334,
      "estudantes": 2335,
      "moviment": 2336,
      "movimentos": 2337,
      "exploração": 2338,
      "auxilia": 2339,
      "passado": 2340,
      "participação": 2341,
      "BRICS": 2342,
      "Bahia": 2343,
      "Colômb": 2344,
      "passou": 2345,
      "instituições": 2346,
      "quilô": 2347,
      "externa": 2348,
      "agrícola": 2349,
      "Paraguai": 2350,
      "diversidade": 2351,
      "caracter": 2352,
      "negócio": 2353,
      "imobiliário": 2354,
      "Francesa": 2355,
      "México": 2356,
      "OMS": 2357,
      "defini": 2358,
      "causa": 2359,
      "religião": 2360,
      "descober": 2361,
      "extensão": 2362,
      "guarda": 2363,
      "impostos": 2364,
      "implementação": 2365,
      "situações": 2366,
      "estilos": 2367,
      "escravidão": 2368,
      "recebeu": 2369,
      "Americanos": 2370,
      "Lisboa": 2371,
      "nuclear": 2372,
      "oitavo": 2373,
      "decisões": 2374,
      "alemão": 2375,
      "rebeli": 2376,
      "naturais": 2377,
      "conquista": 2378,
      "literatura": 2379,
      "agronegócio": 2380,
      "Catarina": 2381,
      "automóveis": 2382,
      "hidrelétricas": 2383,
      "renováveis": 2384,
      "Atlântico": 2385,
      "Atualmente": 2386,
      "Cruz": 2387,
      "Demo": 2388,
      "Equador": 2389,
      "Kubits": 2390,
      "Mercado": 2391,
      "Plano": 2392,
      "Rousse": 2393,
      "crédi": 2394,
      "gramas": 2395,
      "ofere": 2396,
      "rêmio": 2397,
      "determina": 2398,
      "manteve": 2399,
      "categoria": 2400,
      "rebanho": 2401,
      "receitas": 2402,
      "setembro": 2403,
      "potencial": 2404,
      "energética": 2405,
      "Exército": 2406,
      "Colômbia": 2407,
      "Kubitschek": 2408,
      "Rousseff": 2409,
      "%.": 2410,
      "%;": 2411,
      "%).[": 2412,
      "120": 2413,
      "118": 2414,
      "110": 2415,
      "213": 2416,
      "217": 2417,
      "230": 2418,
      "334": 2419,
      "4º": 2420,
      "52": 2421,
      "53": 2422,
      "56": 2423,
      "500": 2424,
      "571": 2425,
      "63": 2426,
      "76": 2427,
      "83": 2428,
      "86": 2429,
      "87": 2430,
      "800": 2431,
      "92": 2432,
      "Ao": 2433,
      "Au": 2434,
      "Ant": 2435,
      "Aca": 2436,
      "Ato": 2437,
      "Acre": 2438,
      "Aérea": 2439,
      "Bas": 2440,
      "Bolí": 2441,
      "Belo": 2442,
      "Ce": 2443,
      "Câ": 2444,
      "DB": 2445,
      "Era": 2446,
      "Est": 2447,
      "Educa": 2448,
      "FM": 2449,
      "Fo": 2450,
      "Fu": 2451,
      "Ge": 2452,
      "G20": 2453,
      "Get": 2454,
      "Is": 2455,
      "Inte": 2456,
      "Igua": 2457,
      "Ja": 2458,
      "LP": 2459,
      "Lu": 2460,
      "Mil": 2461,
      "Mei": 2462,
      "NS": 2463,
      "Nas": 2464,
      "OE": 2465,
      "Ori": 2466,
      "Operação": 2467,
      "PC": 2468,
      "PS": 2469,
      "Pra": 2470,
      "Pen": 2471,
      "Pia": 2472,
      "Pan": 2473,
      "Pinz": 2474,
      "Sar": 2475,
      "Te": 2476,
      "Tu": 2477,
      "Tem": 2478,
      "Usina": 2479,
      "ama": 2480,
      "atu": 2481,
      "ava": 2482,
      "ações": 2483,
      "ach": 2484,
      "acel": 2485,
      "afir": 2486,
      "bes": 2487,
      "bor": 2488,
      "bos": 2489,
      "bou": 2490,
      "ble": 2491,
      "bus": 2492,
      "baux": 2493,
      "ck": 2494,
      "cem": 2495,
      "cto": 2496,
      "cário": 2497,
      "ema": 2498,
      "equa": 2499,
      "equil": 2500,
      "eficiência": 2501,
      "fas": 2502,
      "gên": 2503,
      "gindo": 2504,
      "geiros": 2505,
      "huma": 2506,
      "italia": 2507,
      "king": 2508,
      "los": 2509,
      "lim": 2510,
      "lha": 2511,
      "lat": 2512,
      "lhões": 2513,
      "lcl": 2514,
      "leste": 2515,
      "mon": 2516,
      "mens": 2517,
      "memb": 2518,
      "nal": 2519,
      "num": 2520,
      "numa": 2521,
      "nho": 2522,
      "ncípi": 2523,
      "ogra": 2524,
      "oposição": 2525,
      "ocorreu": 2526,
      "pros": 2527,
      "sores": 2528,
      "tô": 2529,
      "tre": 2530,
      "trá": 2531,
      "tindo": 2532,
      "tários": 2533,
      "vê": 2534,
      "vul": 2535,
      "var": 2536,
      "vendo": 2537,
      "vando": 2538,
      "várias": 2539,
      "wat": 2540,
      "Índi": 2541,
      "ál": 2542,
      "áticas": 2543,
      "águas": 2544,
      "çu": 2545,
      "épo": 2546,
      "ídos": 2547,
      "ón": 2548,
      "óbio": 2549,
      "úr": 2550,
      "úlio": 2551,
      "den": 2552,
      "deres": 2553,
      "deve": 2554,
      "dentes": 2555,
      "devem": 2556,
      "raima": 2557,
      "doeste": 2558,
      "doenças": 2559,
      "esa": 2560,
      "esses": 2561,
      "escolas": 2562,
      "espanh": 2563,
      "esferas": 2564,
      "cobre": 2565,
      "comanda": 2566,
      "cooficial": 2567,
      "ntil": 2568,
      "oro": 2569,
      "rido": 2570,
      "rico": 2571,
      "dado": 2572,
      "daquele": 2573,
      "alia": 2574,
      "algo": 2575,
      "altos": 2576,
      "altas": 2577,
      "altitu": 2578,
      "erão": 2579,
      "erro": 2580,
      "mara": 2581,
      "mana": 2582,
      "mapas": 2583,
      "maté": 2584,
      "matriz": 2585,
      "major": 2586,
      "macro": 2587,
      "cife": 2588,
      "cimentos": 2589,
      "civil": 2590,
      "ciedade": 2591,
      "cab": 2592,
      "cabo": 2593,
      "candi": 2594,
      "istor": 2595,
      "emente": 2596,
      "empreende": 2597,
      "tante": 2598,
      "taman": 2599,
      "taba": 2600,
      "tadores": 2601,
      "romant": 2602,
      "indi": 2603,
      "inúm": 2604,
      "rede": 2605,
      "reconhe": 2606,
      "republica": 2607,
      "revolução": 2608,
      "patri": 2609,
      "pamentos": 2610,
      "tim": 2611,
      "tida": 2612,
      "tima": 2613,
      "tive": 2614,
      "nota": 2615,
      "nomi": 2616,
      "navais": 2617,
      "encont": 2618,
      "enrique": 2619,
      "comb": 2620,
      "compar": 2621,
      "compreende": 2622,
      "elas": 2623,
      "element": 2624,
      "diciais": 2625,
      "diminu": 2626,
      "tográ": 2627,
      "tomadas": 2628,
      "seca": 2629,
      "seis": 2630,
      "sete": 2631,
      "tup": 2632,
      "tudo": 2633,
      "uns": 2634,
      "unda": 2635,
      "porto": 2636,
      "portou": 2637,
      "resol": 2638,
      "resposta": 2639,
      "mentais": 2640,
      "iadores": 2641,
      "andes": 2642,
      "203": 2643,
      "2012": 2644,
      "2025": 2645,
      "2024": 2646,
      "2050": 2647,
      "íses": 2648,
      "ístico": 2649,
      "propa": 2650,
      "propri": 2651,
      "proces": 2652,
      "proje": 2653,
      "profis": 2654,
      "programas": 2655,
      "proble": 2656,
      "duação": 2657,
      "desgas": 2658,
      "desilhas": 2659,
      "conde": 2660,
      "consu": 2661,
      "conso": 2662,
      "conce": 2663,
      "conclu": 2664,
      "consumi": 2665,
      "consequ": 2666,
      "conforme": 2667,
      "sus": 2668,
      "suco": 2669,
      "sust": 2670,
      "super": 2671,
      "sufici": 2672,
      "sudoeste": 2673,
      "mont": 2674,
      "mono": 2675,
      "monar": 2676,
      "192": 2677,
      "195": 2678,
      "1922": 2679,
      "exces": 2680,
      "exclu": 2681,
      "exterior": 2682,
      "icamente": 2683,
      "sol": 2684,
      "sofis": 2685,
      "sofre": 2686,
      "varam": 2687,
      "ciamento": 2688,
      "guerras": 2689,
      "range": 2690,
      "ranja": 2691,
      "fono": 2692,
      "folcl": 2693,
      "munidade": 2694,
      "olandes": 2695,
      "viment": 2696,
      "viol": 2697,
      "vive": 2698,
      "viária": 2699,
      "haram": 2700,
      "haviam": 2701,
      "atende": 2702,
      "prir": 2703,
      "princípi": 2704,
      "terras": 2705,
      "termo": 2706,
      "sion": 2707,
      "nias": 2708,
      "nióbio": 2709,
      "liv": 2710,
      "liz": 2711,
      "liter": 2712,
      "licas": 2713,
      "litoral": 2714,
      "parla": 2715,
      "parência": 2716,
      "partamento": 2717,
      "lação": 2718,
      "laranja": 2719,
      "meral": 2720,
      "metro": 2721,
      "postas": 2722,
      "inada": 2723,
      "cularmente": 2724,
      "estat": 2725,
      "estações": 2726,
      "estavam": 2727,
      "estanho": 2728,
      "itariamente": 2729,
      "gido": 2730,
      "presos": 2731,
      "pressão": 2732,
      "costu": 2733,
      "1815": 2734,
      "1824": 2735,
      "fortem": 2736,
      "forças": 2737,
      "formal": 2738,
      "Este": 2739,
      "Essas": 2740,
      "Espacial": 2741,
      "izar": 2742,
      "izando": 2743,
      "izam": 2744,
      "ciona": 2745,
      "rural": 2746,
      "ticado": 2747,
      "çado": 2748,
      "çados": 2749,
      "estra": 2750,
      "estes": 2751,
      "caso": 2752,
      "casas": 2753,
      "casos": 2754,
      "pioneiro": 2755,
      "cord": 2756,
      "corrupção": 2757,
      "ficos": 2758,
      "mando": 2759,
      "mangan": 2760,
      "tempera": 2761,
      "temperado": 2762,
      "109": 2763,
      "151": 2764,
      "153": 2765,
      "abando": 2766,
      "abrange": 2767,
      "gados": 2768,
      "perman": 2769,
      "141": 2770,
      "142": 2771,
      "144": 2772,
      "145": 2773,
      "121": 2774,
      "125": 2775,
      "126": 2776,
      "127": 2777,
      "graduação": 2778,
      "nominal": 2779,
      "homens": 2780,
      "ficação": 2781,
      "ficamente": 2782,
      "163": 2783,
      "168": 2784,
      "autor": 2785,
      "aumentou": 2786,
      "autô": 2787,
      "trop": 2788,
      "carga": 2789,
      "136": 2790,
      "137": 2791,
      "favor": 2792,
      "voltou": 2793,
      "neo": 2794,
      "ney": 2795,
      "Estação": 2796,
      "traz": 2797,
      "trazi": 2798,
      "talidade": 2799,
      "173": 2800,
      "175": 2801,
      "177": 2802,
      "Países": 2803,
      "interven": 2804,
      "sétimo": 2805,
      "trilhões": 2806,
      "tivais": 2807,
      "Unidas": 2808,
      "Univer": 2809,
      "Cont": 2810,
      "economi": 2811,
      "regente": 2812,
      "Região": 2813,
      "Recife": 2814,
      "judiciais": 2815,
      "adotadas": 2816,
      "crises": 2817,
      "planal": 2818,
      "preço": 2819,
      "particularmente": 2820,
      "assem": 2821,
      "250": 2822,
      "gena": 2823,
      "clim": 2824,
      "função": 2825,
      "mostrou": 2826,
      "mula": 2827,
      "mular": 2828,
      "multina": 2829,
      "portuguesas": 2830,
      "quad": 2831,
      "setores": 2832,
      "substitu": 2833,
      "submari": 2834,
      "111": 2835,
      "Seu": 2836,
      "Segu": 2837,
      "calçados": 2838,
      "Alta": 2839,
      "Petrobras": 2840,
      "chaça": 2841,
      "1994": 2842,
      "1998": 2843,
      "formam": 2844,
      "formação": 2845,
      "colonos": 2846,
      "Maria": 2847,
      "Marinha": 2848,
      "striais": 2849,
      "Comum": 2850,
      "280": 2851,
      "normas": 2852,
      "noroeste": 2853,
      "visita": 2854,
      "realizada": 2855,
      "influências": 2856,
      "Saúde": 2857,
      "Santos": 2858,
      "bancário": 2859,
      "março": 2860,
      "inicial": 2861,
      "inicialmente": 2862,
      "repressão": 2863,
      "representou": 2864,
      "299": 2865,
      "beral": 2866,
      "bebi": 2867,
      "mercados": 2868,
      "níquel": 2869,
      "diversos": 2870,
      "diferente": 2871,
      "Surina": 2872,
      "barra": 2873,
      "barroco": 2874,
      "barreiras": 2875,
      "filia": 2876,
      "filme": 2877,
      "industriais": 2878,
      "totalmente": 2879,
      "transfe": 2880,
      "transmis": 2881,
      "deix": 2882,
      "deiras": 2883,
      "automobil": 2884,
      "indígena": 2885,
      "muitas": 2886,
      "números": 2887,
      "orig": 2888,
      "terceira": 2889,
      "regimes": 2890,
      "XVII": 2891,
      "criado": 2892,
      "larga": 2893,
      "melhores": 2894,
      "status": 2895,
      "perar": 2896,
      "Jogos": 2897,
      "Quase": 2898,
      "americanos": 2899,
      "Forbes": 2900,
      "berdade": 2901,
      "último": 2902,
      "últimas": 2903,
      "organiza": 2904,
      "1970": 2905,
      "variações": 2906,
      "impeach": 2907,
      "legislativas": 2908,
      "ficit": 2909,
      "acabou": 2910,
      "baseada": 2911,
      "globa": 2912,
      "estimado": 2913,
      "estimular": 2914,
      "madamente": 2915,
      "potências": 2916,
      "produzido": 2917,
      "abriu": 2918,
      "administração": 2919,
      "manufaturas": 2920,
      "Judiciário": 2921,
      "apont": 2922,
      "africanas": 2923,
      "feitos": 2924,
      "gredi": 2925,
      "vanguarda": 2926,
      "resultados": 2927,
      "exercer": 2928,
      "chegaram": 2929,
      "semimanufaturados": 2930,
      "representava": 2931,
      "atingir": 2932,
      "atingiu": 2933,
      "imigração": 2934,
      "Programa": 2935,
      "Roraima": 2936,
      "Tratado": 2937,
      "aproxi": 2938,
      "urban": 2939,
      "assumir": 2940,
      "duzida": 2941,
      "destaque": 2942,
      "destacam": 2943,
      "posteriormente": 2944,
      "financeira": 2945,
      "Central": 2946,
      "Dom": 2947,
      "Fundação": 2948,
      "Federativa": 2949,
      "Moder": 2950,
      "Pereira": 2951,
      "equival": 2952,
      "equipamentos": 2953,
      "péla": 2954,
      "estudo": 2955,
      "começou": 2956,
      "ditadura": 2957,
      "turno": 2958,
      "concentra": 2959,
      "concentrada": 2960,
      "explorado": 2961,
      "trizes": 2962,
      "integrar": 2963,
      "próprio": 2964,
      "dividido": 2965,
      "Collor": 2966,
      "Pesquisa": 2967,
      "frango": 2968,
      "lançamento": 2969,
      "míni": 2970,
      "comunica": 2971,
      "produzem": 2972,
      "produzia": 2973,
      "localizado": 2974,
      "agrícolas": 2975,
      "democrática": 2976,
      "caracte": 2977,
      "ambiente": 2978,
      "negócios": 2979,
      "Angra": 2980,
      "Governo": 2981,
      "Social": 2982,
      "efetivo": 2983,
      "festivais": 2984,
      "artistas": 2985,
      "arrecada": 2986,
      "destinos": 2987,
      "sivamente": 2988,
      "parceiros": 2989,
      "parcela": 2990,
      "cresceu": 2991,
      "iniciada": 2992,
      "universidades": 2993,
      "modernista": 2994,
      "Econômico": 2995,
      "Globo": 2996,
      "Também": 2997,
      "acima": 2998,
      "anterior": 2999,
      "fracas": 3000,
      "fosse": 3001,
      "florestas": 3002,
      "esportes": 3003,
      "rodovias": 3004,
      "recuperar": 3005,
      "restrin": 3006,
      "respectivamente": 3007,
      "desigual": 3008,
      "exceto": 3009,
      "petrolí": 3010,
      "oligar": 3011,
      "estaduais": 3012,
      "continente": 3013,
      "bovina": 3014,
      "iniciou": 3015,
      "Instituto": 3016,
      "tecnológica": 3017,
      "extensas": 3018,
      "trouxeram": 3019,
      "selvagens": 3020,
      "ameríndias": 3021,
      "Pernambuco": 3022,
      "desempenho": 3023,
      "CPLP": 3024,
      "Cinema": 3025,
      "Cabral": 3026,
      "Filme": 3027,
      "Floresta": 3028,
      "Grupo": 3029,
      "Palácio": 3030,
      "Tordesilhas": 3031,
      "Trans": 3032,
      "apresenta": 3033,
      "brancos": 3034,
      "distribu": 3035,
      "põe": 3036,
      "prédios": 3037,
      "associa": 3038,
      "ntura": 3039,
      "cismo": 3040,
      "refle": 3041,
      "paulista": 3042,
      "química": 3043,
      "polita": 3044,
      "problemas": 3045,
      "descendentes": 3046,
      "conflitos": 3047,
      "megawat": 3048,
      "homicídios": 3049,
      "familiar": 3050,
      "necessidades": 3051,
      "clássica": 3052,
      "Confederação": 3053,
      "tenham": 3054,
      "demográfico": 3055,
      "semiárido": 3056,
      "quilômetros": 3057,
      "rebeliões": 3058,
      "Democrá": 3059,
      "Bolívia": 3060,
      "Educação": 3061,
      "FMI": 3062,
      "Getúlio": 3063,
      "Iguaçu": 3064,
      "Meirel": 3065,
      "Piauí": 3066,
      "Pinzón": 3067,
      "Sarney": 3068,
      "bauxita": 3069,
      "gêneros": 3070,
      "membros": 3071,
      "Índice": 3072,
      "época": 3073,
      "espanhol": 3074,
      "algodão": 3075,
      "majoritariamente": 3076,
      "candida": 3077,
      "tabaco": 3078,
      "romantismo": 3079,
      "inúmeros": 3080,
      "republicano": 3081,
      "patrimôni": 3082,
      "tiveram": 3083,
      "problema": 3084,
      "consumo": 3085,
      "consoli": 3086,
      "monarquia": 3087,
      "sofreu": 3088,
      "parlament": 3089,
      "fortemente": 3090,
      "manganês": 3091,
      "autônom": 3092,
      "economias": 3093,
      "multinacionais": 3094,
      "Suriname": 3095,
      "impeachment": 3096,
      "aproximadamente": 3097,
      "desigualdade": 3098,
      "megawatts": 3099,
      "\".[": 3100,
      ")[": 3101,
      "119": 3102,
      "115": 3103,
      "114": 3104,
      "112": 3105,
      "116": 3106,
      "113": 3107,
      "117": 3108,
      "2º": 3109,
      "240": 3110,
      "211": 3111,
      "319": 3112,
      "322": 3113,
      "300": 3114,
      "417": 3115,
      "400": 3116,
      "430": 3117,
      "426": 3118,
      "57": 3119,
      "62": 3120,
      "64": 3121,
      "66": 3122,
      "600": 3123,
      "79": 3124,
      "760": 3125,
      "81": 3126,
      "85": 3127,
      "8º": 3128,
      "93": 3129,
      "95": 3130,
      ":[": 3131,
      "Ad": 3132,
      "Am": 3133,
      "Atra": 3134,
      "Aero": 3135,
      "Atriz": 3136,
      "BT": 3137,
      "Bru": 3138,
      "Bona": 3139,
      "Barre": 3140,
      "CD": 3141,
      "CN": 3142,
      "CO": 3143,
      "Cos": 3144,
      "Cis": 3145,
      "Cap": 3146,
      "Cada": 3147,
      "Da": 3148,
      "Dil": 3149,
      "EU": 3150,
      "Eco": 3151,
      "Ele": 3152,
      "FA": 3153,
      "FH": 3154,
      "Fá": 3155,
      "Fis": 3156,
      "Fam": 3157,
      "França": 3158,
      "Ferro": 3159,
      "Gra": 3160,
      "Gar": 3161,
      "Gol": 3162,
      "Gros": 3163,
      "Hor": 3164,
      "Henrique": 3165,
      "IN": 3166,
      "Igre": 3167,
      "Jus": 3168,
      "Jap": 3169,
      "Lín": 3170,
      "Lava": 3171,
      "Me": 3172,
      "Mi": 3173,
      "Mal": 3174,
      "Min": 3175,
      "Manu": 3176,
      "Nel": 3177,
      "Neste": 3178,
      "Ot": 3179,
      "Oce": 3180,
      "ONS": 3181,
      "PT": 3182,
      "Pol": 3183,
      "Prêmio": 3184,
      "Rú": 3185,
      "Res": 3186,
      "RPC": 3187,
      "ST": 3188,
      "SU": 3189,
      "Si": 3190,
      "Sil": 3191,
      "Sele": 3192,
      "TV": 3193,
      "TW": 3194,
      "Ti": 3195,
      "Tan": 3196,
      "Três": 3197,
      "Trin": 3198,
      "Temer": 3199,
      "Todos": 3200,
      "UNA": 3201,
      "Ve": 3202,
      "Vários": 3203,
      "Vaz": 3204,
      "Verão": 3205,
      "Walter": 3206,
      "Yá": 3207,
      "ac": 3208,
      "ade": 3209,
      "aco": 3210,
      "ant": 3211,
      "aqu": 3212,
      "aque": 3213,
      "avi": 3214,
      "aram": 3215,
      "ago": 3216,
      "amento": 3217,
      "afe": 3218,
      "acesso": 3219,
      "atua": 3220,
      "avan": 3221,
      "acla": 3222,
      "aérea": 3223,
      "bc": 3224,
      "bá": 3225,
      "bei": 3226,
      "bel": 3227,
      "bica": 3228,
      "bismo": 3229,
      "cá": 3230,
      "cém": 3231,
      "clí": 3232,
      "cho": 3233,
      "cês": 3234,
      "cúb": 3235,
      "ctual": 3236,
      "câmb": 3237,
      "cuns": 3238,
      "dr": 3239,
      "dra": 3240,
      "din": 3241,
      "dre": 3242,
      "dras": 3243,
      "ez": 3244,
      "eda": 3245,
      "eti": 3246,
      "edi": 3247,
      "ecos": 3248,
      "etos": 3249,
      "ecendo": 3250,
      "evit": 3251,
      "efeitos": 3252,
      "fl": 3253,
      "fres": 3254,
      "fís": 3255,
      "flação": 3256,
      "festações": 3257,
      "gro": 3258,
      "gin": 3259,
      "gno": 3260,
      "geiro": 3261,
      "gmento": 3262,
      "gência": 3263,
      "gando": 3264,
      "gnação": 3265,
      "gística": 3266,
      "gatório": 3267,
      "ht": 3268,
      "há": 3269,
      "hista": 3270,
      "hemisfério": 3271,
      "histor": 3272,
      "holandes": 3273,
      "it": 3274,
      "ias": 3275,
      "icos": 3276,
      "imais": 3277,
      "ipi": 3278,
      "itos": 3279,
      "iças": 3280,
      "ipu": 3281,
      "iás": 3282,
      "igre": 3283,
      "jas": 3284,
      "jão": 3285,
      "jul": 3286,
      "jun": 3287,
      "las": 3288,
      "lva": 3289,
      "lenta": 3290,
      "lês": 3291,
      "linha": 3292,
      "mão": 3293,
      "mus": 3294,
      "mista": 3295,
      "monet": 3296,
      "membro": 3297,
      "ns": 3298,
      "nun": 3299,
      "nia": 3300,
      "nça": 3301,
      "neste": 3302,
      "nesse": 3303,
      "op": 3304,
      "onte": 3305,
      "oce": 3306,
      "ogia": 3307,
      "pá": 3308,
      "pin": 3309,
      "pli": 3310,
      "plu": 3311,
      "pistas": 3312,
      "pinha": 3313,
      "prêmio": 3314,
      "sor": 3315,
      "saté": 3316,
      "ssia": 3317,
      "sassem": 3318,
      "tí": 3319,
      "tên": 3320,
      "tista": 3321,
      "tenta": 3322,
      "tística": 3323,
      "tentou": 3324,
      "udo": 3325,
      "uva": 3326,
      "vá": 3327,
      "ví": 3328,
      "vão": 3329,
      "vên": 3330,
      "vín": 3331,
      "vindica": 3332,
      "xto": 3333,
      "yr": 3334,
      "ze": 3335,
      "zo": 3336,
      "zil": 3337,
      "zin": 3338,
      "zadas": 3339,
      "zinha": 3340,
      "zados": 3341,
      "África": 3342,
      "Álva": 3343,
      "áter": 3344,
      "ádio": 3345,
      "ânt": 3346,
      "ães": 3347,
      "çar": 3348,
      "él": 3349,
      "écia": 3350,
      "êmica": 3351,
      "íz": 3352,
      "ícios": 3353,
      "ílio": 3354,
      "ñez": 3355,
      "óvel": 3356,
      "única": 3357,
      "deri": 3358,
      "decre": 3359,
      "deficiência": 3360,
      "deposto": 3361,
      "departamento": 3362,
      "deficit": 3363,
      "declí": 3364,
      "delas": 3365,
      "raras": 3366,
      "rati": 3367,
      "rano": 3368,
      "raram": 3369,
      "ramento": 3370,
      "ratas": 3371,
      "racha": 3372,
      "rainha": 3373,
      "ravam": 3374,
      "rariamente": 3375,
      "dora": 3376,
      "doras": 3377,
      "docu": 3378,
      "doença": 3379,
      "esal": 3380,
      "esfor": 3381,
      "estiv": 3382,
      "espal": 3383,
      "escal": 3384,
      "esquer": 3385,
      "codi": 3386,
      "cool": 3387,
      "colo": 3388,
      "cozinha": 3389,
      "asi": 3390,
      "assu": 3391,
      "astro": 3392,
      "ntica": 3393,
      "ntidade": 3394,
      "ore": 3395,
      "org": 3396,
      "orde": 3397,
      "oso": 3398,
      "rir": 3399,
      "rial": 3400,
      "ricas": 3401,
      "ritual": 3402,
      "rivais": 3403,
      "rigido": 3404,
      "dam": 3405,
      "data": 3406,
      "damente": 3407,
      "ale": 3408,
      "alu": 3409,
      "alidade": 3410,
      "alfab": 3411,
      "mano": 3412,
      "mani": 3413,
      "manti": 3414,
      "matamento": 3415,
      "madeira": 3416,
      "marinha": 3417,
      "cidos": 3418,
      "cista": 3419,
      "ciências": 3420,
      "cident": 3421,
      "caras": 3422,
      "capo": 3423,
      "caus": 3424,
      "cató": 3425,
      "cair": 3426,
      "cachaça": 3427,
      "caipi": 3428,
      "isto": 3429,
      "isse": 3430,
      "isol": 3431,
      "ismos": 3432,
      "emi": 3433,
      "empre": 3434,
      "tan": 3435,
      "tando": 3436,
      "tagens": 3437,
      "ile": 3438,
      "ilo": 3439,
      "romano": 3440,
      "ins": 3441,
      "iner": 3442,
      "inar": 3443,
      "inva": 3444,
      "inho": 3445,
      "infa": 3446,
      "instituição": 3447,
      "ingredi": 3448,
      "reto": 3449,
      "refor": 3450,
      "recor": 3451,
      "recent": 3452,
      "reino": 3453,
      "reforma": 3454,
      "revista": 3455,
      "redução": 3456,
      "recém": 3457,
      "pací": 3458,
      "pagas": 3459,
      "paviment": 3460,
      "padr": 3461,
      "entar": 3462,
      "entrada": 3463,
      "tipo": 3464,
      "tipos": 3465,
      "tional": 3466,
      "tintura": 3467,
      "novem": 3468,
      "quei": 3469,
      "quest": 3470,
      "questão": 3471,
      "navi": 3472,
      "nave": 3473,
      "nativas": 3474,
      "naquele": 3475,
      "nauta": 3476,
      "encial": 3477,
      "ender": 3478,
      "encar": 3479,
      "encontra": 3480,
      "engloba": 3481,
      "compu": 3482,
      "complement": 3483,
      "compostas": 3484,
      "elab": 3485,
      "elétrica": 3486,
      "dir": 3487,
      "dido": 3488,
      "dico": 3489,
      "dias": 3490,
      "diou": 3491,
      "dicos": 3492,
      "diária": 3493,
      "dieta": 3494,
      "diplo": 3495,
      "dirigido": 3496,
      "topo": 3497,
      "doso": 3498,
      "separa": 3499,
      "secre": 3500,
      "sediou": 3501,
      "tuto": 3502,
      "tudos": 3503,
      "tuação": 3504,
      "tupi": 3505,
      "ularmente": 3506,
      "unidade": 3507,
      "port": 3508,
      "resta": 3509,
      "ressi": 3510,
      "iada": 3511,
      "iacab": 3512,
      "pome": 3513,
      "pole": 3514,
      "and": 3515,
      "animais": 3516,
      "ará": 3517,
      "armada": 3518,
      "quet": 3519,
      "201": 3520,
      "206": 3521,
      "ong": 3522,
      "ondas": 3523,
      "onha": 3524,
      "prote": 3525,
      "profun": 3526,
      "progres": 3527,
      "procla": 3528,
      "procede": 3529,
      "profes": 3530,
      "despes": 3531,
      "desses": 3532,
      "destil": 3533,
      "desmatamento": 3534,
      "condu": 3535,
      "concorre": 3536,
      "concede": 3537,
      "concei": 3538,
      "sura": 3539,
      "suce": 3540,
      "moeda": 3541,
      "190": 3542,
      "191": 3543,
      "1940": 3544,
      "1937": 3545,
      "exo": 3546,
      "existência": 3547,
      "exportou": 3548,
      "outra": 3549,
      "peças": 3550,
      "perin": 3551,
      "ume": 3552,
      "soa": 3553,
      "sof": 3554,
      "soma": 3555,
      "solu": 3556,
      "sociedade": 3557,
      "vadas": 3558,
      "torno": 3559,
      "toriais": 3560,
      "ranhão": 3561,
      "ranking": 3562,
      "foco": 3563,
      "fonte": 3564,
      "olina": 3565,
      "ologia": 3566,
      "vias": 3567,
      "viria": 3568,
      "vinte": 3569,
      "vitori": 3570,
      "impa": 3571,
      "império": 3572,
      "hado": 3573,
      "hares": 3574,
      "atos": 3575,
      "atender": 3576,
      "prime": 3577,
      "primi": 3578,
      "riam": 3579,
      "milho": 3580,
      "milhares": 3581,
      "terna": 3582,
      "termel": 3583,
      "terço": 3584,
      "sita": 3585,
      "sidade": 3586,
      "sional": 3587,
      "sicos": 3588,
      "sibil": 3589,
      "sivo": 3590,
      "veri": 3591,
      "vege": 3592,
      "produções": 3593,
      "mbo": 3594,
      "mbás": 3595,
      "nicos": 3596,
      "lites": 3597,
      "litros": 3598,
      "lidar": 3599,
      "liberdade": 3600,
      "stes": 3601,
      "verde": 3602,
      "versos": 3603,
      "pardos": 3604,
      "parce": 3605,
      "lari": 3606,
      "laços": 3607,
      "mecan": 3608,
      "ralismo": 3609,
      "gocia": 3610,
      "posse": 3611,
      "possa": 3612,
      "inado": 3613,
      "inação": 3614,
      "inava": 3615,
      "cular": 3616,
      "cultural": 3617,
      "culturas": 3618,
      "estar": 3619,
      "estagnação": 3620,
      "itar": 3621,
      "itania": 3622,
      "logística": 3623,
      "gico": 3624,
      "gicos": 3625,
      "gimento": 3626,
      "preser": 3627,
      "presença": 3628,
      "181": 3629,
      "185": 3630,
      "1889": 3631,
      "1891": 3632,
      "fortes": 3633,
      "saz": 3634,
      "sado": 3635,
      "sais": 3636,
      "sados": 3637,
      "sava": 3638,
      "saram": 3639,
      "sações": 3640,
      "saiu": 3641,
      "sabilidade": 3642,
      "Esse": 3643,
      "Espe": 3644,
      "Eslo": 3645,
      "Estima": 3646,
      "Estudos": 3647,
      "izadas": 3648,
      "izonte": 3649,
      "levaram": 3650,
      "rurais": 3651,
      "cui": 3652,
      "cus": 3653,
      "cuja": 3654,
      "custa": 3655,
      "cubismo": 3656,
      "lusó": 3657,
      "estre": 3658,
      "estran": 3659,
      "pior": 3660,
      "picos": 3661,
      "entretanto": 3662,
      "correspon": 3663,
      "corresponde": 3664,
      "tivista": 3665,
      "fix": 3666,
      "figu": 3667,
      "ficas": 3668,
      "ceu": 3669,
      "stimo": 3670,
      "stifica": 3671,
      "101": 3672,
      "102": 3673,
      "103": 3674,
      "104": 3675,
      "105": 3676,
      "106": 3677,
      "107": 3678,
      "108": 3679,
      "152": 3680,
      "154": 3681,
      "155": 3682,
      "156": 3683,
      "157": 3684,
      "158": 3685,
      "159": 3686,
      "1532": 3687,
      "abas": 3688,
      "abol": 3689,
      "abaca": 3690,
      "absolu": 3691,
      "gador": 3692,
      "portanto": 3693,
      "migra": 3694,
      "erado": 3695,
      "perto": 3696,
      "140": 3697,
      "143": 3698,
      "146": 3699,
      "148": 3700,
      "149": 3701,
      "122": 3702,
      "123": 3703,
      "124": 3704,
      "128": 3705,
      "129": 3706,
      "grau": 3707,
      "grave": 3708,
      "grafia": 3709,
      "derru": 3710,
      "derúr": 3711,
      "nomes": 3712,
      "aplica": 3713,
      "ficadas": 3714,
      "162": 3715,
      "164": 3716,
      "165": 3717,
      "166": 3718,
      "167": 3719,
      "169": 3720,
      "auge": 3721,
      "tropas": 3722,
      "carros": 3723,
      "carreiras": 3724,
      "caráter": 3725,
      "131": 3726,
      "132": 3727,
      "133": 3728,
      "134": 3729,
      "135": 3730,
      "138": 3731,
      "139": 3732,
      "bilhe": 3733,
      "voltado": 3734,
      "volume": 3735,
      "net": 3736,
      "negocia": 3737,
      "primas": 3738,
      "cesas": 3739,
      "puladas": 3740,
      "tradição": 3741,
      "agressi": 3742,
      "tale": 3743,
      "170": 3744,
      "171": 3745,
      "172": 3746,
      "174": 3747,
      "176": 3748,
      "178": 3749,
      "chin": 3750,
      "chel": 3751,
      "tribos": 3752,
      "conta": 3753,
      "contrá": 3754,
      "contam": 3755,
      "contribu": 3756,
      "contabil": 3757,
      "contudo": 3758,
      "entais": 3759,
      "entamento": 3760,
      "minalidade": 3761,
      "223": 3762,
      "225": 3763,
      "226": 3764,
      "227": 3765,
      "popula": 3766,
      "Comunidade": 3767,
      "cício": 3768,
      "cídio": 3769,
      "cíficos": 3770,
      "regos": 3771,
      "regencial": 3772,
      "regularmente": 3773,
      "Real": 3774,
      "Revolta": 3775,
      "Regente": 3776,
      "fero": 3777,
      "quico": 3778,
      "quias": 3779,
      "justiça": 3780,
      "justes": 3781,
      "justifica": 3782,
      "regional": 3783,
      "adap": 3784,
      "criar": 3785,
      "criou": 3786,
      "criando": 3787,
      "criminalidade": 3788,
      "plia": 3789,
      "planos": 3790,
      "platina": 3791,
      "previa": 3792,
      "precios": 3793,
      "bom": 3794,
      "peso": 3795,
      "pesada": 3796,
      "pesquisas": 3797,
      "tória": 3798,
      "fego": 3799,
      "vale": 3800,
      "guaran": 3801,
      "guaraná": 3802,
      "251": 3803,
      "252": 3804,
      "gerando": 3805,
      "geogra": 3806,
      "304": 3807,
      "clos": 3808,
      "serras": 3809,
      "endendo": 3810,
      "balan": 3811,
      "fins": 3812,
      "centros": 3813,
      "centrais": 3814,
      "inovação": 3815,
      "eleita": 3816,
      "eleitos": 3817,
      "405": 3818,
      "407": 3819,
      "indados": 3820,
      "239": 3821,
      "funções": 3822,
      "japon": 3823,
      "multi": 3824,
      "multil": 3825,
      "mulatos": 3826,
      "períodos": 3827,
      "amplia": 3828,
      "bate": 3829,
      "transações": 3830,
      "subindo": 3831,
      "substa": 3832,
      "subsí": 3833,
      "subprime": 3834,
      "Semana": 3835,
      "garves": 3836,
      "envolvidas": 3837,
      "habitada": 3838,
      "habitante": 3839,
      "Algarves": 3840,
      "Internet": 3841,
      "Pecuária": 3842,
      "pandemia": 3843,
      "1961": 3844,
      "1963": 3845,
      "1967": 3846,
      "1996": 3847,
      "1997": 3848,
      "formações": 3849,
      "chegar": 3850,
      "coloniais": 3851,
      "347": 3852,
      "379": 3853,
      "Mais": 3854,
      "Mato": 3855,
      "Managem": 3856,
      "Maranhão": 3857,
      "gasolina": 3858,
      "obras": 3859,
      "obteve": 3860,
      "praias": 3861,
      "prazo": 3862,
      "semiacab": 3863,
      "semestre": 3864,
      "risco": 3865,
      "seguindo": 3866,
      "391": 3867,
      "393": 3868,
      "394": 3869,
      "craticamente": 3870,
      "específicos": 3871,
      "reajustes": 3872,
      "mandatos": 3873,
      "Companh": 3874,
      "281": 3875,
      "286": 3876,
      "visando": 3877,
      "viagens": 3878,
      "capaz": 3879,
      "realizado": 3880,
      "culturais": 3881,
      "279": 3882,
      "Deus": 3883,
      "Depu": 3884,
      "banco": 3885,
      "banda": 3886,
      "bandeiras": 3887,
      "hidro": 3888,
      "hiperin": 3889,
      "irra": 3890,
      "irns": 3891,
      "marca": 3892,
      "marcada": 3893,
      "marciais": 3894,
      "295": 3895,
      "Arte": 3896,
      "Caesal": 3897,
      "Cairns": 3898,
      "Noronha": 3899,
      "dispõe": 3900,
      "pastagens": 3901,
      "vasta": 3902,
      "vastos": 3903,
      "instru": 3904,
      "instância": 3905,
      "diverso": 3906,
      "strias": 3907,
      "indústrias": 3908,
      "Suécia": 3909,
      "filho": 3910,
      "dependência": 3911,
      "relatório": 3912,
      "desenvolvido": 3913,
      "desenvolvidos": 3914,
      "1980": 3915,
      "1985": 3916,
      "1987": 3917,
      "deiro": 3918,
      "união": 3919,
      "arquipéla": 3920,
      "autonomia": 3921,
      "classicismo": 3922,
      "360": 3923,
      "384": 3924,
      "388": 3925,
      "Executivo": 3926,
      "Ind": 3927,
      "Inácio": 3928,
      "cerrado": 3929,
      "morros": 3930,
      "mortalidade": 3931,
      "menores": 3932,
      "democracia": 3933,
      "democraticamente": 3934,
      "diretas": 3935,
      "curso": 3936,
      "Então": 3937,
      "XVIII": 3938,
      "aeroporto": 3939,
      "bidos": 3940,
      "cnologia": 3941,
      "criados": 3942,
      "gerada": 3943,
      "melho": 3944,
      "melhor": 3945,
      "tsal": 3946,
      "instalação": 3947,
      "Mundo": 3948,
      "bolo": 3949,
      "longos": 3950,
      "relações": 3951,
      "relativa": 3952,
      "analis": 3953,
      "conhecidas": 3954,
      "atingindo": 3955,
      "americana": 3956,
      "construir": 3957,
      "construída": 3958,
      "construíram": 3959,
      "Grandes": 3960,
      "fute": 3961,
      "fusão": 3962,
      "futsal": 3963,
      "inten": 3964,
      "intele": 3965,
      "ônico": 3966,
      "ônicos": 3967,
      "tuante": 3968,
      "1972": 3969,
      "1973": 3970,
      "1974": 3971,
      "sobretudo": 3972,
      "variam": 3973,
      "legislação": 3974,
      "legislatura": 3975,
      "governar": 3976,
      "governador": 3977,
      "governamentais": 3978,
      "financiamento": 3979,
      "fundação": 3980,
      "atualmente": 3981,
      "baseado": 3982,
      "credo": 3983,
      "leite": 3984,
      "meios": 3985,
      "pitais": 3986,
      "réstimo": 3987,
      "estipuladas": 3988,
      "rompe": 3989,
      "romper": 3990,
      "novamente": 3991,
      "surrealismo": 3992,
      "surgimento": 3993,
      "produziram": 3994,
      "público": 3995,
      "responsáveis": 3996,
      "administrativa": 3997,
      "considerou": 3998,
      "Chile": 3999,
      "Poder": 4000,
      "Poderes": 4001,
      "Pará": 4002,
      "apoiadores": 4003,
      "africano": 4004,
      "biomassa": 4005,
      "censura": 4006,
      "celino": 4007,
      "feita": 4008,
      "feito": 4009,
      "feijão": 4010,
      "venda": 4011,
      "ânica": 4012,
      "étnicos": 4013,
      "reivindica": 4014,
      "resultou": 4015,
      "exercido": 4016,
      "exercício": 4017,
      "pessoa": 4018,
      "influenciados": 4019,
      "influenciaram": 4020,
      "representantes": 4021,
      "atingidos": 4022,
      "Fernanda": 4023,
      "Produ": 4024,
      "Rocas": 4025,
      "Rocha": 4026,
      "ambos": 4027,
      "fiscal": 4028,
      "salário": 4029,
      "urânio": 4030,
      "ânico": 4031,
      "ânicas": 4032,
      "campo": 4033,
      "campe": 4034,
      "capitalista": 4035,
      "empregos": 4036,
      "empréstimo": 4037,
      "quarta": 4038,
      "poderes": 4039,
      "constitucional": 4040,
      "constituições": 4041,
      "constituída": 4042,
      "tornar": 4043,
      "negros": 4044,
      "especialistas": 4045,
      "financeiras": 4046,
      "Alegre": 4047,
      "Bandeira": 4048,
      "Mont": 4049,
      "brit": 4050,
      "cedentes": 4051,
      "eólicos": 4052,
      "equipe": 4053,
      "dania": 4054,
      "mantém": 4055,
      "mantinha": 4056,
      "capitanias": 4057,
      "elite": 4058,
      "ditatorial": 4059,
      "medie": 4060,
      "estabelecimento": 4061,
      "estabelecendo": 4062,
      "temporariamente": 4063,
      "fazer": 4064,
      "fazem": 4065,
      "fazendo": 4066,
      "registrada": 4067,
      "décima": 4068,
      "passageiros": 4069,
      "publicação": 4070,
      "integração": 4071,
      "própria": 4072,
      "próprios": 4073,
      "divididos": 4074,
      "significativa": 4075,
      "significativas": 4076,
      "significativamente": 4077,
      "Bacia": 4078,
      "Bolsa": 4079,
      "Enem": 4080,
      "Enquanto": 4081,
      "Pesquisas": 4082,
      "Pessoa": 4083,
      "açaí": 4084,
      "blindados": 4085,
      "falado": 4086,
      "francês": 4087,
      "francesas": 4088,
      "gerencia": 4089,
      "hospitais": 4090,
      "jornais": 4091,
      "jornal": 4092,
      "passando": 4093,
      "tinham": 4094,
      "emergente": 4095,
      "institutos": 4096,
      "comuns": 4097,
      "proporciona": 4098,
      "izaram": 4099,
      "nominais": 4100,
      "Segunda": 4101,
      "europeia": 4102,
      "democráticas": 4103,
      "independentes": 4104,
      "ambientais": 4105,
      "ocupava": 4106,
      "imobiliária": 4107,
      "Goiás": 4108,
      "Médio": 4109,
      "OMC": 4110,
      "árquico": 4111,
      "dentro": 4112,
      "dentre": 4113,
      "inglês": 4114,
      "inalmente": 4115,
      "religi": 4116,
      "artísticos": 4117,
      "promulgação": 4118,
      "promulgada": 4119,
      "destino": 4120,
      "exigiram": 4121,
      "extração": 4122,
      "expansão": 4123,
      "expandiu": 4124,
      "extensa": 4125,
      "guardas": 4126,
      "implementar": 4127,
      "estilo": 4128,
      "talian": 4129,
      "baixa": 4130,
      "baixo": 4131,
      "seguidos": 4132,
      "seguiram": 4133,
      "iniciativa": 4134,
      "remotas": 4135,
      "investimento": 4136,
      "investimentos": 4137,
      "modernismo": 4138,
      "incentivar": 4139,
      "Econômica": 4140,
      "Global": 4141,
      "Itamar": 4142,
      "Itaipu": 4143,
      "Liberal": 4144,
      "Martim": 4145,
      "Neves": 4146,
      "Outro": 4147,
      "Outros": 4148,
      "VID": 4149,
      "antecedentes": 4150,
      "cumprir": 4151,
      "críticas": 4152,
      "fracos": 4153,
      "floresta": 4154,
      "genha": 4155,
      "houve": 4156,
      "imagin": 4157,
      "sinais": 4158,
      "declarado": 4159,
      "denominado": 4160,
      "denominações": 4161,
      "coroa": 4162,
      "coronel": 4163,
      "alcançou": 4164,
      "alcançado": 4165,
      "marino": 4166,
      "cionários": 4167,
      "rococó": 4168,
      "notável": 4169,
      "notáveis": 4170,
      "quelas": 4171,
      "respectivos": 4172,
      "conseguir": 4173,
      "exames": 4174,
      "expedição": 4175,
      "expressa": 4176,
      "expression": 4177,
      "exceção": 4178,
      "liderada": 4179,
      "liderança": 4180,
      "inauguração": 4181,
      "estadual": 4182,
      "fornecido": 4183,
      "garantem": 4184,
      "garantir": 4185,
      "bovino": 4186,
      "iniciando": 4187,
      "introduzida": 4188,
      "Trabalho": 4189,
      "Trabalhadores": 4190,
      "começaram": 4191,
      "extensos": 4192,
      "trouxe": 4193,
      "selvagem": 4194,
      "Diretrizes": 4195,
      "ameríndios": 4196,
      "Pernambucana": 4197,
      "Agricultura": 4198,
      "Civil": 4199,
      "Carlos": 4200,
      "Cardoso": 4201,
      "Fórum": 4202,
      "Fórmula": 4203,
      "ISA": 4204,
      "ISS": 4205,
      "Jeca": 4206,
      "Legisla": 4207,
      "Salles": 4208,
      "antiga": 4209,
      "bélicas": 4210,
      "basicamente": 4211,
      "eventos": 4212,
      "flutuante": 4213,
      "lingu": 4214,
      "linhas": 4215,
      "operações": 4216,
      "oposicion": 4217,
      "pólio": 4218,
      "sensu": 4219,
      "âmbito": 4220,
      "decorrente": 4221,
      "decorrentes": 4222,
      "razões": 4223,
      "colocação": 4224,
      "circuns": 4225,
      "instau": 4226,
      "instabilidade": 4227,
      "reduzir": 4228,
      "reduziu": 4229,
      "entidades": 4230,
      "comple": 4231,
      "comprado": 4232,
      "complexa": 4233,
      "complexo": 4234,
      "ultramarino": 4235,
      "promover": 4236,
      "promovendo": 4237,
      "suicídio": 4238,
      "modelo": 4239,
      "aberto": 4240,
      "abertura": 4241,
      "permiti": 4242,
      "permitindo": 4243,
      "derrota": 4244,
      "autoridades": 4245,
      "tribunais": 4246,
      "Português": 4247,
      "Portuguesa": 4248,
      "jurídica": 4249,
      "jurisdicionais": 4250,
      "fechado": 4251,
      "mulheres": 4252,
      "amplamente": 4253,
      "Internamente": 4254,
      "International": 4255,
      "obrigatório": 4256,
      "Assis": 4257,
      "Assim": 4258,
      "analfabetos": 4259,
      "acadêmi": 4260,
      "acadêmica": 4261,
      "rompido": 4262,
      "administrativas": 4263,
      "fabricação": 4264,
      "fabricante": 4265,
      "Embraer": 4266,
      "Embrapa": 4267,
      "movimentação": 4268,
      "movimentado": 4269,
      "características": 4270,
      "descoberto": 4271,
      "conquistado": 4272,
      "crédito": 4273,
      "créditos": 4274,
      "Antár": 4275,
      "Academia": 4276,
      "Atol": 4277,
      "Bases": 4278,
      "Ceará": 4279,
      "Câmara": 4280,
      "Foi": 4281,
      "Futebol": 4282,
      "Jato": 4283,
      "Luiz": 4284,
      "Militar": 4285,
      "OEA": 4286,
      "Penal": 4287,
      "Tecnologia": 4288,
      "amaz": 4289,
      "acelerado": 4290,
      "afirmam": 4291,
      "borracha": 4292,
      "equatorial": 4293,
      "equilí": 4294,
      "italianos": 4295,
      "limita": 4296,
      "latino": 4297,
      "monárquico": 4298,
      "tráfego": 4299,
      "vêm": 4300,
      "álcool": 4301,
      "comandada": 4302,
      "cooficializaram": 4303,
      "altitude": 4304,
      "matérias": 4305,
      "macroeconômicas": 4306,
      "empreendeu": 4307,
      "tamanho": 4308,
      "reconhecida": 4309,
      "compartil": 4310,
      "elementos": 4311,
      "tográfica": 4312,
      "processados": 4313,
      "projeto": 4314,
      "desgaste": 4315,
      "consumidor": 4316,
      "sustent": 4317,
      "superpotência": 4318,
      "suficiente": 4319,
      "monopólio": 4320,
      "excessiva": 4321,
      "exclusivamente": 4322,
      "soldados": 4323,
      "sofisticado": 4324,
      "folclore": 4325,
      "violência": 4326,
      "viveu": 4327,
      "princípios": 4328,
      "livre": 4329,
      "metropolita": 4330,
      "estatísticas": 4331,
      "estradas": 4332,
      "temperatura": 4333,
      "abandono": 4334,
      "tropicais": 4335,
      "trazidos": 4336,
      "intervenção": 4337,
      "Contin": 4338,
      "planalto": 4339,
      "substituindo": 4340,
      "submarinos": 4341,
      "Segurança": 4342,
      "visitantes": 4343,
      "bebida": 4344,
      "barragens": 4345,
      "filiadas": 4346,
      "transmissão": 4347,
      "deixou": 4348,
      "automobilística": 4349,
      "organizações": 4350,
      "urbanas": 4351,
      "Moderna": 4352,
      "equivalente": 4353,
      "mínimo": 4354,
      "comunicação": 4355,
      "caracteri": 4356,
      "arrecadação": 4357,
      "anteriormente": 4358,
      "petrolífero": 4359,
      "oligarquias": 4360,
      "Transparência": 4361,
      "Democrático": 4362,
      "Meirelles": 4363,
      "candidato": 4364,
      "patrimônio": 4365,
      "consolidou": 4366,
      "parlamentares": 4367,
      "autônomas": 4368,
      "Através": 4369,
      "Barreto": 4370,
      "COVID": 4371,
      "Cisplatina": 4372,
      "Capitania": 4373,
      "Dilma": 4374,
      "EUA": 4375,
      "FHC": 4376,
      "Fiscal": 4377,
      "Família": 4378,
      "Grosso": 4379,
      "Horizonte": 4380,
      "Igreja": 4381,
      "Juscelino": 4382,
      "Japão": 4383,
      "Língua": 4384,
      "Michel": 4385,
      "Manuel": 4386,
      "Nelson": 4387,
      "Otelo": 4388,
      "Oceano": 4389,
      "Polônia": 4390,
      "Rússia": 4391,
      "STF": 4392,
      "Silva": 4393,
      "Seleção": 4394,
      "TWh": 4395,
      "Tancredo": 4396,
      "Trindade": 4397,
      "Yáñez": 4398,
      "aconte": 4399,
      "aqueles": 4400,
      "aviões": 4401,
      "agora": 4402,
      "bcf": 4403,
      "bicameral": 4404,
      "cúbicos": 4405,
      "câmbio": 4406,
      "etizados": 4407,
      "ecossistemas": 4408,
      "física": 4409,
      "gnorando": 4410,
      "holandeses": 4411,
      "igrejas": 4412,
      "julho": 4413,
      "junho": 4414,
      "musicais": 4415,
      "monetária": 4416,
      "pinia": 4417,
      "satélites": 4418,
      "tênis": 4419,
      "tentativa": 4420,
      "zileiros": 4421,
      "Álvares": 4422,
      "declínio": 4423,
      "escala": 4424,
      "esquerda": 4425,
      "astronauta": 4426,
      "alfabetizados": 4427,
      "manifestações": 4428,
      "cidental": 4429,
      "capoeira": 4430,
      "infantil": 4431,
      "recentemente": 4432,
      "pacífica": 4433,
      "pavimentadas": 4434,
      "padrão": 4435,
      "novembro": 4436,
      "questões": 4437,
      "navios": 4438,
      "navegador": 4439,
      "computadores": 4440,
      "complementar": 4441,
      "topografia": 4442,
      "secreto": 4443,
      "pomerano": 4444,
      "profundas": 4445,
      "professores": 4446,
      "despesas": 4447,
      "destilada": 4448,
      "sucedido": 4449,
      "parcerias": 4450,
      "lusófono": 4451,
      "derúrgica": 4452,
      "contrário": 4453,
      "preciosas": 4454,
      "geograficamente": 4455,
      "multilate": 4456,
      "substancial": 4457,
      "subsídios": 4458,
      "Management": 4459,
      "semiacabado": 4460,
      "Deputados": 4461,
      "hiperinflação": 4462,
      "Caesalpinia": 4463,
      "arquipélagos": 4464,
      "expressionismo": 4465,
      "circunscri": 4466,
      "\",[": 4467,
      "\"),[": 4468,
      "%);": 4469,
      "%;[": 4470,
      ")\"": 4471,
      ")\".": 4472,
      "//": 4473,
      "04": 4474,
      "05": 4475,
      "08": 4476,
      "019": 4477,
      "055": 4478,
      "080": 4479,
      "083": 4480,
      "220": 4481,
      "210": 4482,
      "215": 4483,
      "214": 4484,
      "212": 4485,
      "216": 4486,
      "318": 4487,
      "310": 4488,
      "315": 4489,
      "314": 4490,
      "312": 4491,
      "316": 4492,
      "313": 4493,
      "317": 4494,
      "325": 4495,
      "330": 4496,
      "340": 4497,
      "323": 4498,
      "335": 4499,
      "337": 4500,
      "339": 4501,
      "324": 4502,
      "326": 4503,
      "328": 4504,
      "327": 4505,
      "329": 4506,
      "336": 4507,
      "331": 4508,
      "332": 4509,
      "420": 4510,
      "419": 4511,
      "418": 4512,
      "410": 4513,
      "415": 4514,
      "414": 4515,
      "412": 4516,
      "416": 4517,
      "413": 4518,
      "425": 4519,
      "440": 4520,
      "411": 4521,
      "434": 4522,
      "435": 4523,
      "437": 4524,
      "439": 4525,
      "424": 4526,
      "428": 4527,
      "427": 4528,
      "429": 4529,
      "436": 4530,
      "438": 4531,
      "445": 4532,
      "431": 4533,
      "432": 4534,
      "433": 4535,
      "510": 4536,
      "522": 4537,
      "524": 4538,
      "550": 4539,
      "617": 4540,
      "639": 4541,
      "650": 4542,
      "627": 4543,
      "642": 4544,
      "673": 4545,
      "710": 4546,
      "700": 4547,
      "721": 4548,
      "8ª": 4549,
      "850": 4550,
      "877": 4551,
      "858": 4552,
      "9ª": 4553,
      "9º": 4554,
      "937": 4555,
      "994": 4556,
      "://": 4557,
      "?]": 4558,
      "AC": 4559,
      "AP": 4560,
      "Ata": 4561,
      "Ações": 4562,
      "Amb": 4563,
      "Ani": 4564,
      "Apres": 4565,
      "Aqui": 4566,
      "Ativo": 4567,
      "Amos": 4568,
      "Air": 4569,
      "Aber": 4570,
      "Aço": 4571,
      "Atua": 4572,
      "Agos": 4573,
      "Agrá": 4574,
      "Avalia": 4575,
      "Abri": 4576,
      "Até": 4577,
      "Ayr": 4578,
      "B3": 4579,
      "BS": 4580,
      "Be": 4581,
      "Bo": 4582,
      "Bra": 4583,
      "Bal": 4584,
      "Bil": 4585,
      "Bel": 4586,
      "Bul": 4587,
      "Bres": 4588,
      "Bat": 4589,
      "Best": 4590,
      "Bap": 4591,
      "Bio": 4592,
      "Bruto": 4593,
      "Buta": 4594,
      "Braz": 4595,
      "Belas": 4596,
      "Bél": 4597,
      "CE": 4598,
      "Cl": 4599,
      "Cu": 4600,
      "Cas": 4601,
      "Cor": 4602,
      "Cri": 4603,
      "Cha": 4604,
      "Cerca": 4605,
      "Cidade": 4606,
      "Cam": 4607,
      "Chi": 4608,
      "Cató": 4609,
      "CNA": 4610,
      "Cesar": 4611,
      "Coro": 4612,
      "Clari": 4613,
      "DE": 4614,
      "DS": 4615,
      "DT": 4616,
      "Dr": 4617,
      "Dé": 4618,
      "Dí": 4619,
      "Das": 4620,
      "Dent": 4621,
      "Dia": 4622,
      "Dina": 4623,
      "Dentre": 4624,
      "Desse": 4625,
      "Destas": 4626,
      "EE": 4627,
      "EG": 4628,
      "EM": 4629,
      "Eu": 4630,
      "Epi": 4631,
      "Enti": 4632,
      "Eber": 4633,
      "Elei": 4634,
      "Eix": 4635,
      "Emilia": 4636,
      "FI": 4637,
      "FL": 4638,
      "Fa": 4639,
      "Fin": 4640,
      "Far": 4641,
      "Fon": 4642,
      "Fol": 4643,
      "Fli": 4644,
      "Ferra": 4645,
      "Faz": 4646,
      "FNS": 4647,
      "FCN": 4648,
      "FUNA": 4649,
      "Fit": 4650,
      "Festiv": 4651,
      "Finalmente": 4652,
      "G8": 4653,
      "GL": 4654,
      "Ga": 4655,
      "Gas": 4656,
      "Ger": 4657,
      "Gan": 4658,
      "Gon": 4659,
      "Gla": 4660,
      "Gré": 4661,
      "Gabri": 4662,
      "Gaz": 4663,
      "He": 4664,
      "Hi": 4665,
      "Ho": 4666,
      "Hy": 4667,
      "Her": 4668,
      "Hei": 4669,
      "Hun": 4670,
      "Hou": 4671,
      "Had": 4672,
      "Histor": 4673,
      "Huns": 4674,
      "Holandes": 4675,
      "Hong": 4676,
      "IM": 4677,
      "IP": 4678,
      "Ib": 4679,
      "Ir": 4680,
      "IÃ": 4681,
      "Int": 4682,
      "Idade": 4683,
      "Ini": 4684,
      "Ime": 4685,
      "Idio": 4686,
      "Ibé": 4687,
      "Ilha": 4688,
      "Ignorando": 4689,
      "Jab": 4690,
      "Júni": 4691,
      "Jânio": 4692,
      "JBS": 4693,
      "Kö": 4694,
      "Kong": 4695,
      "Ly": 4696,
      "Las": 4697,
      "Lan": 4698,
      "Lon": 4699,
      "Lab": 4700,
      "Lenta": 4701,
      "Lob": 4702,
      "Linha": 4703,
      "Let": 4704,
      "Limi": 4705,
      "Luso": 4706,
      "LDB": 4707,
      "LAC": 4708,
      "Mu": 4709,
      "Mis": 4710,
      "Mat": 4711,
      "Mau": 4712,
      "Mag": 4713,
      "Muni": 4714,
      "Malta": 4715,
      "MDB": 4716,
      "Moro": 4717,
      "NU": 4718,
      "Ni": 4719,
      "Ner": 4720,
      "Não": 4721,
      "Nun": 4722,
      "Nesse": 4723,
      "Nucle": 4724,
      "NIÃ": 4725,
      "Olí": 4726,
      "Opera": 4727,
      "Obras": 4728,
      "OCD": 4729,
      "Ocidental": 4730,
      "ODE": 4731,
      "ONU": 4732,
      "PE": 4733,
      "PL": 4734,
      "PP": 4735,
      "PR": 4736,
      "Pl": 4737,
      "Pos": 4738,
      "Pri": 4739,
      "Pil": 4740,
      "Pres": 4741,
      "Pou": 4742,
      "Púb": 4743,
      "Pindo": 4744,
      "Pró": 4745,
      "Pós": 4746,
      "Pela": 4747,
      "Plan": 4748,
      "Pelo": 4749,
      "PNA": 4750,
      "Príncipe": 4751,
      "PPC": 4752,
      "PISA": 4753,
      "PDT": 4754,
      "PODE": 4755,
      "QS": 4756,
      "Ra": 4757,
      "Ré": 4758,
      "Rel": 4759,
      "Ran": 4760,
      "Ron": 4761,
      "Rica": 4762,
      "Rede": 4763,
      "Rodo": 4764,
      "Rosa": 4765,
      "Rádio": 4766,
      "SA": 4767,
      "Ser": 4768,
      "Sta": 4769,
      "Sen": 4770,
      "Sol": 4771,
      "Sab": 4772,
      "Serra": 4773,
      "Sob": 4774,
      "SUS": 4775,
      "Sín": 4776,
      "SBT": 4777,
      "SIN": 4778,
      "To": 4779,
      "Tel": 4780,
      "Tar": 4781,
      "Tendo": 4782,
      "Tch": 4783,
      "Tele": 4784,
      "Tró": 4785,
      "Trem": 4786,
      "Tais": 4787,
      "Ul": 4788,
      "Um": 4789,
      "Uma": 4790,
      "UNIÃ": 4791,
      "Va": 4792,
      "Vil": 4793,
      "Via": 4794,
      "Vol": 4795,
      "Vera": 4796,
      "Várias": 4797,
      "Velo": 4798,
      "Vale": 4799,
      "Wor": 4800,
      "WEG": 4801,
      "Xin": 4802,
      "XII": 4803,
      "XXI": 4804,
      "Zona": 4805,
      "]),": 4806,
      "ax": 4807,
      "aˈ": 4808,
      "ara": 4809,
      "aer": 4810,
      "ata": 4811,
      "acom": 4812,
      "aria": 4813,
      "apar": 4814,
      "aus": 4815,
      "ativa": 4816,
      "acol": 4817,
      "aju": 4818,
      "ativo": 4819,
      "acal": 4820,
      "aris": 4821,
      "avia": 4822,
      "ativas": 4823,
      "acria": 4824,
      "ativi": 4825,
      "afunda": 4826,
      "ativos": 4827,
      "avam": 4828,
      "acei": 4829,
      "aflu": 4830,
      "anagem": 4831,
      "adicionais": 4832,
      "acostu": 4833,
      "aiada": 4834,
      "aquelas": 4835,
      "bɾ": 4836,
      "bra": 4837,
      "bul": 4838,
      "bon": 4839,
      "brica": 4840,
      "brio": 4841,
      "blo": 4842,
      "beiro": 4843,
      "bação": 4844,
      "bera": 4845,
      "buro": 4846,
      "bada": 4847,
      "brado": 4848,
      "banos": 4849,
      "bulo": 4850,
      "bela": 4851,
      "blei": 4852,
      "brás": 4853,
      "bene": 4854,
      "brar": 4855,
      "cr": 4856,
      "câ": 4857,
      "cê": 4858,
      "cô": 4859,
      "cras": 4860,
      "cte": 4861,
      "ctor": 4862,
      "cuma": 4863,
      "ctos": 4864,
      "celei": 4865,
      "cerra": 4866,
      "cários": 4867,
      "cleo": 4868,
      "ctua": 4869,
      "crom": 4870,
      "cân": 4871,
      "cór": 4872,
      "cnica": 4873,
      "ctadores": 4874,
      "cél": 4875,
      "cônico": 4876,
      "dê": 4877,
      "dô": 4878,
      "dém": 4879,
      "dman": 4880,
      "dista": 4881,
      "dindo": 4882,
      "dismo": 4883,
      "distrito": 4884,
      "dônia": 4885,
      "dências": 4886,
      "dãos": 4887,
      "eu": 4888,
      "ey": 4889,
      "eto": 4890,
      "eral": 4891,
      "erica": 4892,
      "etro": 4893,
      "ech": 4894,
      "etri": 4895,
      "eja": 4896,
      "edades": 4897,
      "edições": 4898,
      "evan": 4899,
      "evolu": 4900,
      "edita": 4901,
      "eing": 4902,
      "etimo": 4903,
      "eamento": 4904,
      "fá": 4905,
      "fri": 4906,
      "fem": 4907,
      "fen": 4908,
      "fan": 4909,
      "far": 4910,
      "fat": 4911,
      "fina": 4912,
      "fru": 4913,
      "fus": 4914,
      "fase": 4915,
      "fárias": 4916,
      "fícios": 4917,
      "fendendo": 4918,
      "gr": 4919,
      "gá": 4920,
      "gó": 4921,
      "gul": 4922,
      "gim": 4923,
      "gria": 4924,
      "gst": 4925,
      "gral": 4926,
      "geira": 4927,
      "gária": 4928,
      "ghi": 4929,
      "gentes": 4930,
      "gárias": 4931,
      "gível": 4932,
      "gene": 4933,
      "gár": 4934,
      "gnar": 4935,
      "gãos": 4936,
      "ght": 4937,
      "hes": 4938,
      "har": 4939,
      "heiro": 4940,
      "histas": 4941,
      "hini": 4942,
      "hori": 4943,
      "heiras": 4944,
      "heli": 4945,
      "ie": 4946,
      "iw": 4947,
      "ira": 4948,
      "ico": 4949,
      "ião": 4950,
      "ite": 4951,
      "ion": 4952,
      "iros": 4953,
      "ional": 4954,
      "ieira": 4955,
      "irá": 4956,
      "imar": 4957,
      "idis": 4958,
      "ibi": 4959,
      "ibé": 4960,
      "iosa": 4961,
      "igual": 4962,
      "imunidade": 4963,
      "ignorando": 4964,
      "ibrar": 4965,
      "icônico": 4966,
      "jé": 4967,
      "jê": 4968,
      "jes": 4969,
      "jei": 4970,
      "jan": 4971,
      "jós": 4972,
      "jeta": 4973,
      "jiu": 4974,
      "jit": 4975,
      "jinho": 4976,
      "kem": 4977,
      "kano": 4978,
      "kate": 4979,
      "ld": 4980,
      "lá": 4981,
      "lú": 4982,
      "lis": 4983,
      "lou": 4984,
      "lho": 4985,
      "lhe": 4986,
      "lân": 4987,
      "lenti": 4988,
      "lhes": 4989,
      "mita": 4990,
      "mên": 4991,
      "meira": 4992,
      "mero": 4993,
      "mpu": 4994,
      "meiras": 4995,
      "mília": 4996,
      "monetário": 4997,
      "máticas": 4998,
      "mpicos": 4999
    },
    "merges": [
      [
        "d",
        "e"
      ],
      [
        "r",
        "a"
      ],
      [
        "d",
        "o"
      ],
      [
        "e",
        "s"
      ],
      [
        "c",
        "o"
      ],
      [
        "a",
        "s"
      ],
      [
        "n",
        "t"
      ],
      [
        "o",
        "r"
      ],
      [
        "o",
        "s"
      ],
      [
        "r",
        "i"
      ],
      [
        "d",
        "a"
      ],
      [
        "a",
        "l"
      ],
      [
        "e",
        "r"
      ],
      [
        "m",
        "a"
      ],
      [
        "c",
        "i"
      ],
      [
        "c",
        "a"
      ],
      [
        "i",
        "s"
      ],
      [
        "e",
        "m"
      ],
      [
        "t",
        "a"
      ],
      [
        "ã",
        "o"
      ],
      [
        "i",
        "l"
      ],
      [
        "r",
        "o"
      ],
      [
        "i",
        "n"
      ],
      [
        "r",
        "e"
      ],
      [
        "p",
        "a"
      ],
      [
        "e",
        "nt"
      ],
      [
        "ra",
        "s"
      ],
      [
        "t",
        "i"
      ],
      [
        "n",
        "o"
      ],
      [
        "q",
        "u"
      ],
      [
        ".",
        "["
      ],
      [
        "n",
        "a"
      ],
      [
        "e",
        "n"
      ],
      [
        "e",
        "i"
      ],
      [
        "co",
        "m"
      ],
      [
        "ç",
        "ão"
      ],
      [
        "ras",
        "il"
      ],
      [
        "e",
        "l"
      ],
      [
        "d",
        "i"
      ],
      [
        "t",
        "o"
      ],
      [
        "do",
        "s"
      ],
      [
        "s",
        "e"
      ],
      [
        "t",
        "u"
      ],
      [
        "u",
        "l"
      ],
      [
        "u",
        "n"
      ],
      [
        "p",
        "or"
      ],
      [
        "r",
        "es"
      ],
      [
        "m",
        "ent"
      ],
      [
        "t",
        "e"
      ],
      [
        "i",
        "a"
      ],
      [
        "p",
        "o"
      ],
      [
        "a",
        "n"
      ],
      [
        "B",
        "rasil"
      ],
      [
        "a",
        "r"
      ],
      [
        "qu",
        "e"
      ],
      [
        "2",
        "0"
      ],
      [
        "o",
        "n"
      ],
      [
        "í",
        "s"
      ],
      [
        "p",
        "ro"
      ],
      [
        "õ",
        "es"
      ],
      [
        "d",
        "as"
      ],
      [
        "d",
        "u"
      ],
      [
        "pa",
        "ís"
      ],
      [
        "de",
        "s"
      ],
      [
        "co",
        "n"
      ],
      [
        "s",
        "u"
      ],
      [
        "m",
        "o"
      ],
      [
        "1",
        "9"
      ],
      [
        "e",
        "x"
      ],
      [
        "i",
        "ca"
      ],
      [
        "o",
        "u"
      ],
      [
        "p",
        "e"
      ],
      [
        "u",
        "m"
      ],
      [
        "s",
        "o"
      ],
      [
        "v",
        "a"
      ],
      [
        "ma",
        "i"
      ],
      [
        "t",
        "or"
      ],
      [
        "mai",
        "or"
      ],
      [
        "ci",
        "a"
      ],
      [
        "g",
        "u"
      ],
      [
        "ra",
        "n"
      ],
      [
        "f",
        "o"
      ],
      [
        "m",
        "un"
      ],
      [
        "]",
        "["
      ],
      [
        "u",
        "ma"
      ],
      [
        "o",
        "l"
      ],
      [
        "v",
        "i"
      ],
      [
        "i",
        "m"
      ],
      [
        "ment",
        "e"
      ],
      [
        "b",
        "rasil"
      ],
      [
        "h",
        "a"
      ],
      [
        "brasil",
        "ei"
      ],
      [
        "a",
        "t"
      ],
      [
        "p",
        "ri"
      ],
      [
        "ra",
        "m"
      ],
      [
        "ri",
        "a"
      ],
      [
        "da",
        "de"
      ],
      [
        "com",
        "o"
      ],
      [
        "m",
        "il"
      ],
      [
        "t",
        "er"
      ],
      [
        "s",
        "i"
      ],
      [
        "pa",
        "ra"
      ],
      [
        "p",
        "el"
      ],
      [
        "v",
        "e"
      ],
      [
        "nt",
        "e"
      ],
      [
        "pro",
        "du"
      ],
      [
        "ç",
        "ões"
      ],
      [
        "m",
        "b"
      ],
      [
        "n",
        "i"
      ],
      [
        "r",
        "os"
      ],
      [
        "l",
        "i"
      ],
      [
        "s",
        "t"
      ],
      [
        "v",
        "er"
      ],
      [
        "pa",
        "r"
      ],
      [
        "l",
        "a"
      ],
      [
        "m",
        "e"
      ],
      [
        "ra",
        "l"
      ],
      [
        "é",
        "m"
      ],
      [
        "is",
        "t"
      ],
      [
        "g",
        "o"
      ],
      [
        "p",
        "os"
      ],
      [
        "fo",
        "i"
      ],
      [
        "in",
        "a"
      ],
      [
        "ri",
        "ca"
      ],
      [
        "on",
        "al"
      ],
      [
        ")",
        ","
      ],
      [
        "ri",
        "o"
      ],
      [
        "c",
        "ul"
      ],
      [
        "es",
        "ta"
      ],
      [
        "i",
        "ta"
      ],
      [
        "l",
        "o"
      ],
      [
        "g",
        "i"
      ],
      [
        "p",
        "res"
      ],
      [
        "s",
        "ão"
      ],
      [
        "co",
        "s"
      ],
      [
        "1",
        "8"
      ],
      [
        "f",
        "or"
      ],
      [
        "ma",
        "is"
      ],
      [
        "ci",
        "al"
      ],
      [
        "ci",
        "onal"
      ],
      [
        "s",
        "a"
      ],
      [
        "E",
        "s"
      ],
      [
        "ê",
        "n"
      ],
      [
        "i",
        "z"
      ],
      [
        "ei",
        "ro"
      ],
      [
        "l",
        "e"
      ],
      [
        "l",
        "í"
      ],
      [
        "nt",
        "es"
      ],
      [
        "ci",
        "o"
      ],
      [
        "en",
        "do"
      ],
      [
        "ment",
        "o"
      ],
      [
        "a",
        "ção"
      ],
      [
        "r",
        "u"
      ],
      [
        "e",
        "de"
      ],
      [
        "ti",
        "ca"
      ],
      [
        "c",
        "u"
      ],
      [
        "l",
        "u"
      ],
      [
        "ç",
        "a"
      ],
      [
        "es",
        "t"
      ],
      [
        "E",
        "m"
      ],
      [
        "a",
        "o"
      ],
      [
        "c",
        "as"
      ],
      [
        "p",
        "i"
      ],
      [
        ",",
        "["
      ],
      [
        "h",
        "ões"
      ],
      [
        "nt",
        "er"
      ],
      [
        "ent",
        "re"
      ],
      [
        "tu",
        "ra"
      ],
      [
        "co",
        "r"
      ],
      [
        "t",
        "os"
      ],
      [
        "ti",
        "v"
      ],
      [
        "f",
        "i"
      ],
      [
        "ma",
        "n"
      ],
      [
        "m",
        "é"
      ],
      [
        "t",
        "em"
      ],
      [
        "mun",
        "do"
      ],
      [
        "c",
        "e"
      ],
      [
        "s",
        "ti"
      ],
      [
        "1",
        "0"
      ],
      [
        "1",
        "5"
      ],
      [
        "a",
        "b"
      ],
      [
        "g",
        "a"
      ],
      [
        "por",
        "ta"
      ],
      [
        "mb",
        "ém"
      ],
      [
        "ên",
        "cia"
      ],
      [
        "m",
        "i"
      ],
      [
        "e",
        "ra"
      ],
      [
        "ta",
        "mbém"
      ],
      [
        "na",
        "cional"
      ],
      [
        "p",
        "er"
      ],
      [
        "1",
        "4"
      ],
      [
        "1",
        "2"
      ],
      [
        "g",
        "ra"
      ],
      [
        "de",
        "r"
      ],
      [
        "no",
        "m"
      ],
      [
        "g",
        "un"
      ],
      [
        "h",
        "o"
      ],
      [
        "u",
        "s"
      ],
      [
        "go",
        "ver"
      ],
      [
        "a",
        "p"
      ],
      [
        "nt",
        "o"
      ],
      [
        "di",
        "al"
      ],
      [
        "f",
        "ica"
      ],
      [
        "po",
        "lí"
      ],
      [
        "1",
        "6"
      ],
      [
        "a",
        "u"
      ],
      [
        "t",
        "ro"
      ],
      [
        "ca",
        "r"
      ],
      [
        "ent",
        "e"
      ],
      [
        "ei",
        "ra"
      ],
      [
        "1",
        "3"
      ],
      [
        "b",
        "il"
      ],
      [
        "f",
        "a"
      ],
      [
        "i",
        "o"
      ],
      [
        "n",
        "ci"
      ],
      [
        "v",
        "ol"
      ],
      [
        "20",
        "0"
      ],
      [
        "sti",
        "tu"
      ],
      [
        "n",
        "e"
      ],
      [
        "n",
        "os"
      ],
      [
        "pri",
        "m"
      ],
      [
        "brasilei",
        "ro"
      ],
      [
        "Es",
        "ta"
      ],
      [
        "c",
        "es"
      ],
      [
        "p",
        "ul"
      ],
      [
        "t",
        "ra"
      ],
      [
        "is",
        "ta"
      ],
      [
        "brasilei",
        "ra"
      ],
      [
        "mil",
        "hões"
      ],
      [
        "produ",
        "tor"
      ],
      [
        "a",
        "g"
      ],
      [
        "i",
        "ção"
      ],
      [
        "t",
        "al"
      ],
      [
        "er",
        "ca"
      ],
      [
        "1",
        "7"
      ],
      [
        "P",
        "a"
      ],
      [
        "c",
        "h"
      ],
      [
        "g",
        "ia"
      ],
      [
        "i",
        "nter"
      ],
      [
        "s",
        "é"
      ],
      [
        "t",
        "ri"
      ],
      [
        "co",
        "nt"
      ],
      [
        "A",
        "mé"
      ],
      [
        "r",
        "á"
      ],
      [
        "ent",
        "a"
      ],
      [
        "tu",
        "gu"
      ],
      [
        "pri",
        "nci"
      ],
      [
        "ede",
        "ral"
      ],
      [
        "N",
        "o"
      ],
      [
        "m",
        "in"
      ],
      [
        "ti",
        "va"
      ],
      [
        "an",
        "do"
      ],
      [
        "pel",
        "o"
      ],
      [
        "2",
        "2"
      ],
      [
        "U",
        "ni"
      ],
      [
        "n",
        "as"
      ],
      [
        "s",
        "endo"
      ],
      [
        "u",
        "ro"
      ],
      [
        "v",
        "el"
      ],
      [
        "po",
        "pul"
      ],
      [
        "Amé",
        "rica"
      ],
      [
        "C",
        "o"
      ],
      [
        "N",
        "a"
      ],
      [
        "P",
        "or"
      ],
      [
        "c",
        "í"
      ],
      [
        "m",
        "as"
      ],
      [
        "mun",
        "dial"
      ],
      [
        "O",
        "s"
      ],
      [
        "a",
        "das"
      ],
      [
        "e",
        "co"
      ],
      [
        "i",
        "dade"
      ],
      [
        "á",
        "ri"
      ],
      [
        "co",
        "l"
      ],
      [
        "re",
        "g"
      ],
      [
        "na",
        "is"
      ],
      [
        "por",
        "tugu"
      ],
      [
        "su",
        "a"
      ],
      [
        "pel",
        "a"
      ],
      [
        "R",
        "e"
      ],
      [
        "f",
        "er"
      ],
      [
        "m",
        "es"
      ],
      [
        "qu",
        "i"
      ],
      [
        "en",
        "as"
      ],
      [
        "el",
        "e"
      ],
      [
        "país",
        "es"
      ],
      [
        "nom",
        "ia"
      ],
      [
        "0",
        "0"
      ],
      [
        "j",
        "u"
      ],
      [
        "l",
        "ica"
      ],
      [
        "ê",
        "s"
      ],
      [
        "re",
        "gi"
      ],
      [
        "en",
        "s"
      ],
      [
        "con",
        "ô"
      ],
      [
        "ou",
        "t"
      ],
      [
        "a",
        "do"
      ],
      [
        "a",
        "da"
      ],
      [
        "c",
        "ri"
      ],
      [
        "g",
        "ran"
      ],
      [
        "p",
        "l"
      ],
      [
        "p",
        "re"
      ],
      [
        "ra",
        "do"
      ],
      [
        "in",
        "d"
      ],
      [
        "ex",
        "porta"
      ],
      [
        "par",
        "ti"
      ],
      [
        "sé",
        "cul"
      ],
      [
        "b",
        "o"
      ],
      [
        "p",
        "es"
      ],
      [
        "t",
        "ó"
      ],
      [
        "ca",
        "da"
      ],
      [
        "eco",
        "nomia"
      ],
      [
        "F",
        "ederal"
      ],
      [
        "S",
        "ul"
      ],
      [
        "f",
        "e"
      ],
      [
        "v",
        "al"
      ],
      [
        "gover",
        "no"
      ],
      [
        "d",
        "é"
      ],
      [
        "t",
        "es"
      ],
      [
        "as",
        "s"
      ],
      [
        "an",
        "os"
      ],
      [
        "gu",
        "a"
      ],
      [
        "tiv",
        "o"
      ],
      [
        "2",
        "5"
      ],
      [
        "a",
        "no"
      ],
      [
        "e",
        "conô"
      ],
      [
        "g",
        "e"
      ],
      [
        "t",
        "as"
      ],
      [
        "ú",
        "b"
      ],
      [
        "ra",
        "ção"
      ],
      [
        "ci",
        "dade"
      ],
      [
        "di",
        "a"
      ],
      [
        "ve",
        "is"
      ],
      [
        "3",
        "0"
      ],
      [
        "S",
        "ão"
      ],
      [
        "c",
        "l"
      ],
      [
        "i",
        "de"
      ],
      [
        "s",
        "er"
      ],
      [
        "á",
        "rio"
      ],
      [
        "er",
        "o"
      ],
      [
        "in",
        "do"
      ],
      [
        "en",
        "de"
      ],
      [
        "en",
        "er"
      ],
      [
        "polí",
        "tica"
      ],
      [
        "C",
        "on"
      ],
      [
        "b",
        "al"
      ],
      [
        "f",
        "in"
      ],
      [
        "r",
        "ó"
      ],
      [
        "ç",
        "as"
      ],
      [
        "ri",
        "or"
      ],
      [
        "se",
        "u"
      ],
      [
        "se",
        "gun"
      ],
      [
        "sécul",
        "o"
      ],
      [
        ")",
        ";"
      ],
      [
        "c",
        "ent"
      ],
      [
        "p",
        "úb"
      ],
      [
        "v",
        "o"
      ],
      [
        "á",
        "ria"
      ],
      [
        "is",
        "mo"
      ],
      [
        "in",
        "o"
      ],
      [
        "el",
        "ei"
      ],
      [
        "ter",
        "ri"
      ],
      [
        "4",
        "0"
      ],
      [
        "R",
        "io"
      ],
      [
        "p",
        "al"
      ],
      [
        "as",
        "e"
      ],
      [
        "in",
        "da"
      ],
      [
        "pa",
        "is"
      ],
      [
        "an",
        "eiro"
      ],
      [
        "cia",
        "is"
      ],
      [
        "cio",
        "nais"
      ],
      [
        "tó",
        "rio"
      ],
      [
        "2",
        "3"
      ],
      [
        "f",
        "un"
      ],
      [
        "g",
        "an"
      ],
      [
        "i",
        "to"
      ],
      [
        "j",
        "a"
      ],
      [
        "m",
        "os"
      ],
      [
        "m",
        "ul"
      ],
      [
        "n",
        "ão"
      ],
      [
        "o",
        "do"
      ],
      [
        "z",
        "i"
      ],
      [
        "er",
        "ra"
      ],
      [
        "po",
        "n"
      ],
      [
        "par",
        "te"
      ],
      [
        "cor",
        "do"
      ],
      [
        "per",
        "í"
      ],
      [
        "portugu",
        "es"
      ],
      [
        ")",
        ".["
      ],
      [
        "I",
        "B"
      ],
      [
        "a",
        "m"
      ],
      [
        "a",
        "cordo"
      ],
      [
        "b",
        "a"
      ],
      [
        "b",
        "ita"
      ],
      [
        "c",
        "res"
      ],
      [
        "n",
        "el"
      ],
      [
        "r",
        "í"
      ],
      [
        "t",
        "ran"
      ],
      [
        "ó",
        "s"
      ],
      [
        "in",
        "f"
      ],
      [
        "qu",
        "a"
      ],
      [
        "di",
        "o"
      ],
      [
        "se",
        "tor"
      ],
      [
        "ment",
        "os"
      ],
      [
        "su",
        "b"
      ],
      [
        "mun",
        "i"
      ],
      [
        "ener",
        "gia"
      ],
      [
        "1",
        "1"
      ],
      [
        "S",
        "e"
      ],
      [
        "c",
        "al"
      ],
      [
        "c",
        "lu"
      ],
      [
        "g",
        "ar"
      ],
      [
        "n",
        "do"
      ],
      [
        "v",
        "es"
      ],
      [
        "ra",
        "nte"
      ],
      [
        "es",
        "te"
      ],
      [
        "en",
        "vol"
      ],
      [
        "ul",
        "o"
      ],
      [
        "maior",
        "es"
      ],
      [
        "ha",
        "bita"
      ],
      [
        "mil",
        "ita"
      ],
      [
        "iz",
        "ação"
      ],
      [
        "terri",
        "tório"
      ],
      [
        "perí",
        "odo"
      ],
      [
        "A",
        "l"
      ],
      [
        "I",
        "nter"
      ],
      [
        "P",
        "e"
      ],
      [
        "c",
        "ha"
      ],
      [
        "e",
        "ta"
      ],
      [
        "e",
        "uro"
      ],
      [
        "m",
        "ica"
      ],
      [
        "p",
        "lo"
      ],
      [
        "is",
        "te"
      ],
      [
        "pa",
        "n"
      ],
      [
        "19",
        "6"
      ],
      [
        "19",
        "9"
      ],
      [
        "esta",
        "dos"
      ],
      [
        "for",
        "ma"
      ],
      [
        "stitu",
        "ição"
      ],
      [
        "Pa",
        "ulo"
      ],
      [
        "ch",
        "e"
      ],
      [
        "cí",
        "pi"
      ],
      [
        "ári",
        "os"
      ],
      [
        "col",
        "on"
      ],
      [
        "3",
        "4"
      ],
      [
        "3",
        "5"
      ],
      [
        "3",
        "7"
      ],
      [
        "M",
        "a"
      ],
      [
        "g",
        "as"
      ],
      [
        "g",
        "al"
      ],
      [
        "o",
        "b"
      ],
      [
        "p",
        "ra"
      ],
      [
        "s",
        "em"
      ],
      [
        "t",
        "en"
      ],
      [
        "ri",
        "s"
      ],
      [
        "da",
        "des"
      ],
      [
        "ei",
        "ros"
      ],
      [
        "to",
        "nel"
      ],
      [
        "se",
        "gu"
      ],
      [
        "res",
        "pon"
      ],
      [
        "po",
        "der"
      ],
      [
        "20",
        "19"
      ],
      [
        "fo",
        "ram"
      ],
      [
        "at",
        "é"
      ],
      [
        "ist",
        "as"
      ],
      [
        "ap",
        "enas"
      ],
      [
        "out",
        "ros"
      ],
      [
        "segun",
        "do"
      ],
      [
        "tonel",
        "adas"
      ],
      [
        "3",
        "9"
      ],
      [
        "A",
        "s"
      ],
      [
        "a",
        "me"
      ],
      [
        "a",
        "inda"
      ],
      [
        "b",
        "re"
      ],
      [
        "c",
        "ra"
      ],
      [
        "c",
        "erca"
      ],
      [
        "á",
        "vel"
      ],
      [
        "do",
        "r"
      ],
      [
        "es",
        "pe"
      ],
      [
        "re",
        "a"
      ],
      [
        "at",
        "ina"
      ],
      [
        "st",
        "ria"
      ],
      [
        "man",
        "da"
      ],
      [
        "Esta",
        "dos"
      ],
      [
        "princi",
        "pal"
      ],
      [
        "princi",
        "pais"
      ],
      [
        "popul",
        "ação"
      ],
      [
        "Co",
        "m"
      ],
      [
        "iste",
        "ma"
      ],
      [
        "2",
        "1"
      ],
      [
        "2",
        "4"
      ],
      [
        "2",
        "6"
      ],
      [
        "2",
        "8"
      ],
      [
        "5",
        "0"
      ],
      [
        "b",
        "u"
      ],
      [
        "d",
        "ro"
      ],
      [
        "j",
        "e"
      ],
      [
        "n",
        "or"
      ],
      [
        "v",
        "is"
      ],
      [
        "v",
        "ia"
      ],
      [
        "ca",
        "pa"
      ],
      [
        "re",
        "al"
      ],
      [
        "ti",
        "cas"
      ],
      [
        "to",
        "dos"
      ],
      [
        "tu",
        "gal"
      ],
      [
        "ul",
        "a"
      ],
      [
        "des",
        "te"
      ],
      [
        "cul",
        "tura"
      ],
      [
        "pres",
        "ide"
      ],
      [
        "Por",
        "tugal"
      ],
      [
        "inf",
        "lu"
      ],
      [
        "2",
        "7"
      ],
      [
        "D",
        "e"
      ],
      [
        "J",
        "aneiro"
      ],
      [
        "S",
        "a"
      ],
      [
        "b",
        "an"
      ],
      [
        "h",
        "e"
      ],
      [
        "h",
        "i"
      ],
      [
        "i",
        "r"
      ],
      [
        "s",
        "os"
      ],
      [
        "ma",
        "r"
      ],
      [
        "ci",
        "mento"
      ],
      [
        "in",
        "i"
      ],
      [
        "in",
        "ha"
      ],
      [
        "re",
        "pres"
      ],
      [
        "no",
        "u"
      ],
      [
        "qu",
        "is"
      ],
      [
        "tu",
        "al"
      ],
      [
        "des",
        "de"
      ],
      [
        "gran",
        "de"
      ],
      [
        "muni",
        "cípi"
      ],
      [
        "2",
        "9"
      ],
      [
        "A",
        "r"
      ],
      [
        "C",
        "a"
      ],
      [
        "G",
        "u"
      ],
      [
        "I",
        "I"
      ],
      [
        "L",
        "atina"
      ],
      [
        "L",
        "ula"
      ],
      [
        "N",
        "or"
      ],
      [
        "P",
        "IB"
      ],
      [
        "b",
        "e"
      ],
      [
        "d",
        "is"
      ],
      [
        "i",
        "al"
      ],
      [
        "m",
        "erca"
      ],
      [
        "n",
        "í"
      ],
      [
        "p",
        "as"
      ],
      [
        "v",
        "as"
      ],
      [
        "é",
        "rio"
      ],
      [
        "ô",
        "n"
      ],
      [
        "ú",
        "m"
      ],
      [
        "ri",
        "to"
      ],
      [
        "in",
        "st"
      ],
      [
        "in",
        "clu"
      ],
      [
        "ent",
        "es"
      ],
      [
        "di",
        "ver"
      ],
      [
        "di",
        "fer"
      ],
      [
        "im",
        "porta"
      ],
      [
        "ve",
        "z"
      ],
      [
        "produ",
        "ção"
      ],
      [
        "st",
        "ri"
      ],
      [
        "cial",
        "mente"
      ],
      [
        "ap",
        "ós"
      ],
      [
        "bil",
        "hões"
      ],
      [
        "prim",
        "eiro"
      ],
      [
        "Esta",
        "do"
      ],
      [
        "Na",
        "cional"
      ],
      [
        "regi",
        "ão"
      ],
      [
        "ind",
        "ú"
      ],
      [
        ");",
        "["
      ],
      [
        "S",
        "u"
      ],
      [
        "a",
        "d"
      ],
      [
        "a",
        "dos"
      ],
      [
        "b",
        "ro"
      ],
      [
        "b",
        "ar"
      ],
      [
        "e",
        "t"
      ],
      [
        "e",
        "ram"
      ],
      [
        "f",
        "il"
      ],
      [
        "l",
        "ia"
      ],
      [
        "n",
        "di"
      ],
      [
        "o",
        "fi"
      ],
      [
        "p",
        "u"
      ],
      [
        "s",
        "ul"
      ],
      [
        "s",
        "istema"
      ],
      [
        "v",
        "os"
      ],
      [
        "é",
        "s"
      ],
      [
        "í",
        "cio"
      ],
      [
        "de",
        "m"
      ],
      [
        "de",
        "p"
      ],
      [
        "do",
        "res"
      ],
      [
        "as",
        "si"
      ],
      [
        "or",
        "es"
      ],
      [
        "in",
        "du"
      ],
      [
        "re",
        "l"
      ],
      [
        "to",
        "tal"
      ],
      [
        "des",
        "envol"
      ],
      [
        "19",
        "8"
      ],
      [
        "tor",
        "nou"
      ],
      [
        "ist",
        "em"
      ],
      [
        "pos",
        "su"
      ],
      [
        "le",
        "o"
      ],
      [
        "est",
        "á"
      ],
      [
        "dé",
        "cada"
      ],
      [
        "púb",
        "lica"
      ],
      [
        "tran",
        "s"
      ],
      [
        "capa",
        "cidade"
      ],
      [
        "E",
        "uro"
      ],
      [
        "a",
        "ç"
      ],
      [
        "g",
        "em"
      ],
      [
        "t",
        "ró"
      ],
      [
        "á",
        "s"
      ],
      [
        "de",
        "i"
      ],
      [
        "de",
        "z"
      ],
      [
        "ra",
        "da"
      ],
      [
        "nt",
        "i"
      ],
      [
        "in",
        "ício"
      ],
      [
        "ti",
        "cos"
      ],
      [
        "qu",
        "al"
      ],
      [
        "na",
        "cionais"
      ],
      [
        "com",
        "er"
      ],
      [
        "to",
        "u"
      ],
      [
        "se",
        "us"
      ],
      [
        "un",
        "i"
      ],
      [
        "ar",
        "qui"
      ],
      [
        "du",
        "rante"
      ],
      [
        "con",
        "si"
      ],
      [
        "pe",
        "us"
      ],
      [
        "brasilei",
        "ras"
      ],
      [
        "brasilei",
        "ros"
      ],
      [
        "at",
        "ra"
      ],
      [
        "man",
        "u"
      ],
      [
        "au",
        "to"
      ],
      [
        "ces",
        "so"
      ],
      [
        "gran",
        "des"
      ],
      [
        "ind",
        "í"
      ],
      [
        "econô",
        "mi"
      ],
      [
        "cl",
        "assi"
      ],
      [
        "Inter",
        "nacional"
      ],
      [
        "euro",
        "peus"
      ],
      [
        "indú",
        "stria"
      ],
      [
        "3",
        "6"
      ],
      [
        "3",
        "8"
      ],
      [
        "E",
        "x"
      ],
      [
        "I",
        "n"
      ],
      [
        "c",
        "er"
      ],
      [
        "d",
        "ência"
      ],
      [
        "i",
        "nte"
      ],
      [
        "m",
        "u"
      ],
      [
        "m",
        "or"
      ],
      [
        "m",
        "en"
      ],
      [
        "n",
        "úm"
      ],
      [
        "v",
        "és"
      ],
      [
        "de",
        "mo"
      ],
      [
        "or",
        "i"
      ],
      [
        "al",
        "ta"
      ],
      [
        "di",
        "re"
      ],
      [
        "pe",
        "tró"
      ],
      [
        "ter",
        "c"
      ],
      [
        "produ",
        "tos"
      ],
      [
        "pos",
        "ição"
      ],
      [
        "cu",
        "r"
      ],
      [
        "tiv",
        "as"
      ],
      [
        "fi",
        "co"
      ],
      [
        "gun",
        "s"
      ],
      [
        "prim",
        "eira"
      ],
      [
        "enta",
        "nto"
      ],
      [
        "min",
        "ist"
      ],
      [
        "Uni",
        "dos"
      ],
      [
        "reg",
        "im"
      ],
      [
        "mes",
        "mo"
      ],
      [
        "econô",
        "mica"
      ],
      [
        "habita",
        "ntes"
      ],
      [
        "municípi",
        "os"
      ],
      [
        "stri",
        "al"
      ],
      [
        "petró",
        "leo"
      ],
      [
        "4",
        "5"
      ],
      [
        "E",
        "nt"
      ],
      [
        "X",
        "V"
      ],
      [
        "a",
        "ero"
      ],
      [
        "b",
        "i"
      ],
      [
        "c",
        "no"
      ],
      [
        "c",
        "ria"
      ],
      [
        "f",
        "ro"
      ],
      [
        "g",
        "is"
      ],
      [
        "g",
        "era"
      ],
      [
        "g",
        "enas"
      ],
      [
        "l",
        "ar"
      ],
      [
        "m",
        "el"
      ],
      [
        "r",
        "em"
      ],
      [
        "s",
        "es"
      ],
      [
        "s",
        "ta"
      ],
      [
        "t",
        "s"
      ],
      [
        "é",
        "r"
      ],
      [
        "es",
        "cra"
      ],
      [
        "al",
        "ém"
      ],
      [
        "er",
        "na"
      ],
      [
        "em",
        "pres"
      ],
      [
        "ta",
        "do"
      ],
      [
        "in",
        "dep"
      ],
      [
        "ti",
        "co"
      ],
      [
        "el",
        "a"
      ],
      [
        "pe",
        "ra"
      ],
      [
        "ol",
        "í"
      ],
      [
        "est",
        "ão"
      ],
      [
        "era",
        "is"
      ],
      [
        "out",
        "ras"
      ],
      [
        "parti",
        "r"
      ],
      [
        "Pe",
        "dro"
      ],
      [
        "preside",
        "nte"
      ],
      [
        "inst",
        "al"
      ],
      [
        "indu",
        "strial"
      ],
      [
        "arqui",
        "te"
      ],
      [
        "gis",
        "la"
      ],
      [
        "J",
        "o"
      ],
      [
        "M",
        "un"
      ],
      [
        "Q",
        "u"
      ],
      [
        "b",
        "ol"
      ],
      [
        "c",
        "ente"
      ],
      [
        "g",
        "ru"
      ],
      [
        "i",
        "u"
      ],
      [
        "l",
        "on"
      ],
      [
        "p",
        "ei"
      ],
      [
        "s",
        "ica"
      ],
      [
        "t",
        "ê"
      ],
      [
        "t",
        "endo"
      ],
      [
        "ci",
        "do"
      ],
      [
        "ci",
        "as"
      ],
      [
        "re",
        "la"
      ],
      [
        "ti",
        "do"
      ],
      [
        "ti",
        "vi"
      ],
      [
        "ei",
        "ras"
      ],
      [
        "te",
        "ve"
      ],
      [
        "an",
        "al"
      ],
      [
        "con",
        "st"
      ],
      [
        "con",
        "he"
      ],
      [
        "su",
        "as"
      ],
      [
        "ran",
        "do"
      ],
      [
        "vi",
        "mento"
      ],
      [
        "at",
        "in"
      ],
      [
        "produtor",
        "es"
      ],
      [
        "Uni",
        "ão"
      ],
      [
        "cri",
        "se"
      ],
      [
        "ass",
        "im"
      ],
      [
        "cres",
        "cimento"
      ],
      [
        "ame",
        "rica"
      ],
      [
        "quis",
        "a"
      ],
      [
        "merca",
        "do"
      ],
      [
        "atra",
        "vés"
      ],
      [
        "indí",
        "genas"
      ],
      [
        "classi",
        "fica"
      ],
      [
        "empres",
        "as"
      ],
      [
        "const",
        "ru"
      ],
      [
        "4",
        "4"
      ],
      [
        "6",
        "0"
      ],
      [
        "A",
        "ma"
      ],
      [
        "F",
        "or"
      ],
      [
        "G",
        "ran"
      ],
      [
        "X",
        "I"
      ],
      [
        "b",
        "er"
      ],
      [
        "f",
        "u"
      ],
      [
        "f",
        "rica"
      ],
      [
        "g",
        "res"
      ],
      [
        "i",
        "nt"
      ],
      [
        "l",
        "or"
      ],
      [
        "l",
        "ti"
      ],
      [
        "r",
        "ês"
      ],
      [
        "t",
        "ros"
      ],
      [
        "ç",
        "o"
      ],
      [
        "ç",
        "os"
      ],
      [
        "ô",
        "ni"
      ],
      [
        "ú",
        "de"
      ],
      [
        "ú",
        "car"
      ],
      [
        "ú",
        "lti"
      ],
      [
        "es",
        "se"
      ],
      [
        "or",
        "gan"
      ],
      [
        "ri",
        "n"
      ],
      [
        "ta",
        "x"
      ],
      [
        "in",
        "as"
      ],
      [
        "re",
        "ce"
      ],
      [
        "qu",
        "ase"
      ],
      [
        "en",
        "cia"
      ],
      [
        "di",
        "ca"
      ],
      [
        "di",
        "ções"
      ],
      [
        "tu",
        "a"
      ],
      [
        "te",
        "rior"
      ],
      [
        "te",
        "cno"
      ],
      [
        "su",
        "mi"
      ],
      [
        "19",
        "7"
      ],
      [
        "ex",
        "em"
      ],
      [
        "so",
        "bre"
      ],
      [
        "va",
        "ria"
      ],
      [
        "ran",
        "ça"
      ],
      [
        "im",
        "i"
      ],
      [
        "im",
        "pe"
      ],
      [
        "ist",
        "rito"
      ],
      [
        "lo",
        "ca"
      ],
      [
        "iz",
        "ado"
      ],
      [
        "le",
        "gisla"
      ],
      [
        "lu",
        "gar"
      ],
      [
        "fi",
        "ci"
      ],
      [
        "gover",
        "na"
      ],
      [
        "bil",
        "idade"
      ],
      [
        "inter",
        "nacional"
      ],
      [
        "inter",
        "nacionais"
      ],
      [
        "portugu",
        "ês"
      ],
      [
        "exporta",
        "ções"
      ],
      [
        "fin",
        "an"
      ],
      [
        "fun",
        "da"
      ],
      [
        "portugues",
        "a"
      ],
      [
        "milita",
        "r"
      ],
      [
        "ôn",
        "ia"
      ],
      [
        "aç",
        "úcar"
      ],
      [
        "núm",
        "ero"
      ],
      [
        "regim",
        "e"
      ],
      [
        "Ent",
        "re"
      ],
      [
        "fro",
        "nt"
      ],
      [
        "arquite",
        "tura"
      ],
      [
        "tivi",
        "dade"
      ],
      [
        ")",
        "."
      ],
      [
        "D",
        "istrito"
      ],
      [
        "P",
        "olí"
      ],
      [
        "a",
        "ca"
      ],
      [
        "a",
        "tual"
      ],
      [
        "b",
        "ase"
      ],
      [
        "c",
        "re"
      ],
      [
        "d",
        "ó"
      ],
      [
        "f",
        "ede"
      ],
      [
        "g",
        "lo"
      ],
      [
        "g",
        "ens"
      ],
      [
        "h",
        "or"
      ],
      [
        "l",
        "ei"
      ],
      [
        "m",
        "ú"
      ],
      [
        "m",
        "ei"
      ],
      [
        "n",
        "da"
      ],
      [
        "p",
        "ita"
      ],
      [
        "r",
        "é"
      ],
      [
        "s",
        "as"
      ],
      [
        "t",
        "il"
      ],
      [
        "á",
        "rea"
      ],
      [
        "es",
        "ti"
      ],
      [
        "ri",
        "e"
      ],
      [
        "al",
        "guns"
      ],
      [
        "ma",
        "do"
      ],
      [
        "ma",
        "da"
      ],
      [
        "em",
        "ent"
      ],
      [
        "ro",
        "m"
      ],
      [
        "no",
        "va"
      ],
      [
        "no",
        "me"
      ],
      [
        "di",
        "os"
      ],
      [
        "tu",
        "ral"
      ],
      [
        "po",
        "t"
      ],
      [
        "20",
        "22"
      ],
      [
        "su",
        "r"
      ],
      [
        "mo",
        "bil"
      ],
      [
        "tor",
        "es"
      ],
      [
        "pel",
        "as"
      ],
      [
        "pel",
        "os"
      ],
      [
        "produ",
        "zi"
      ],
      [
        "esta",
        "do"
      ],
      [
        "ên",
        "cias"
      ],
      [
        "lí",
        "n"
      ],
      [
        "tica",
        "mente"
      ],
      [
        "cor",
        "re"
      ],
      [
        "tiv",
        "os"
      ],
      [
        "10",
        "0"
      ],
      [
        "ab",
        "ri"
      ],
      [
        "rá",
        "s"
      ],
      [
        "popul",
        "ar"
      ],
      [
        "ári",
        "as"
      ],
      [
        "regi",
        "ões"
      ],
      [
        "exporta",
        "ção"
      ],
      [
        "ge",
        "ral"
      ],
      [
        "Con",
        "stituição"
      ],
      [
        "púb",
        "li"
      ],
      [
        "portugues",
        "es"
      ],
      [
        "milita",
        "res"
      ],
      [
        "respon",
        "s"
      ],
      [
        "ad",
        "minist"
      ],
      [
        "possu",
        "i"
      ],
      [
        "consi",
        "de"
      ],
      [
        "manu",
        "fa"
      ],
      [
        "terc",
        "eiro"
      ],
      [
        "cur",
        "sos"
      ],
      [
        "Mun",
        "dial"
      ],
      [
        "tê",
        "m"
      ],
      [
        "exem",
        "plo"
      ],
      [
        "Polí",
        "cia"
      ],
      [
        "3",
        "1"
      ],
      [
        "7",
        "7"
      ],
      [
        "C",
        "h"
      ],
      [
        "D",
        "u"
      ],
      [
        "J",
        "u"
      ],
      [
        "P",
        "o"
      ],
      [
        "P",
        "ar"
      ],
      [
        "V",
        "i"
      ],
      [
        "V",
        "ar"
      ],
      [
        "a",
        "res"
      ],
      [
        "a",
        "po"
      ],
      [
        "a",
        "frica"
      ],
      [
        "b",
        "io"
      ],
      [
        "c",
        "en"
      ],
      [
        "c",
        "el"
      ],
      [
        "c",
        "rá"
      ],
      [
        "d",
        "rel"
      ],
      [
        "f",
        "ei"
      ],
      [
        "f",
        "im"
      ],
      [
        "f",
        "ab"
      ],
      [
        "g",
        "os"
      ],
      [
        "g",
        "re"
      ],
      [
        "g",
        "rá"
      ],
      [
        "h",
        "ão"
      ],
      [
        "h",
        "ist"
      ],
      [
        "j",
        "á"
      ],
      [
        "p",
        "ró"
      ],
      [
        "t",
        "rês"
      ],
      [
        "v",
        "em"
      ],
      [
        "v",
        "en"
      ],
      [
        "v",
        "an"
      ],
      [
        "á",
        "veis"
      ],
      [
        "â",
        "n"
      ],
      [
        "é",
        "t"
      ],
      [
        "í",
        "ndi"
      ],
      [
        "nt",
        "a"
      ],
      [
        "ri",
        "cultura"
      ],
      [
        "da",
        "dos"
      ],
      [
        "ci",
        "n"
      ],
      [
        "ca",
        "ra"
      ],
      [
        "em",
        "bo"
      ],
      [
        "re",
        "i"
      ],
      [
        "qu",
        "ando"
      ],
      [
        "com",
        "ér"
      ],
      [
        "di",
        "ci"
      ],
      [
        "to",
        "do"
      ],
      [
        "res",
        "ul"
      ],
      [
        "20",
        "18"
      ],
      [
        "20",
        "14"
      ],
      [
        "ex",
        "er"
      ],
      [
        "maior",
        "ia"
      ],
      [
        "fo",
        "ntes"
      ],
      [
        "vi",
        "do"
      ],
      [
        "at",
        "rás"
      ],
      [
        "st",
        "as"
      ],
      [
        "la",
        "res"
      ],
      [
        "18",
        "0"
      ],
      [
        "for",
        "te"
      ],
      [
        "for",
        "mas"
      ],
      [
        "pi",
        "tal"
      ],
      [
        "tra",
        "bal"
      ],
      [
        "fer",
        "ro"
      ],
      [
        "pl",
        "an"
      ],
      [
        "parti",
        "ci"
      ],
      [
        "pes",
        "so"
      ],
      [
        "pes",
        "quisa"
      ],
      [
        "val",
        "ia"
      ],
      [
        "qua",
        "nto"
      ],
      [
        "che",
        "ga"
      ],
      [
        "colon",
        "ial"
      ],
      [
        "sem",
        "i"
      ],
      [
        "influ",
        "encia"
      ],
      [
        "hi",
        "drel"
      ],
      [
        "repres",
        "enta"
      ],
      [
        "Euro",
        "pa"
      ],
      [
        "mor",
        "tes"
      ],
      [
        "dire",
        "ito"
      ],
      [
        "instal",
        "ada"
      ],
      [
        "Jo",
        "ão"
      ],
      [
        "atin",
        "gi"
      ],
      [
        "Ama",
        "z"
      ],
      [
        "Gran",
        "de"
      ],
      [
        "XI",
        "X"
      ],
      [
        "imi",
        "gra"
      ],
      [
        "dó",
        "lares"
      ],
      [
        "mú",
        "sica"
      ],
      [
        "Var",
        "gas"
      ],
      [
        "hist",
        "ó"
      ],
      [
        "comér",
        "cio"
      ],
      [
        "%",
        ","
      ],
      [
        "3",
        "2"
      ],
      [
        "9",
        "4"
      ],
      [
        "E",
        "mb"
      ],
      [
        "F",
        "erna"
      ],
      [
        "I",
        "m"
      ],
      [
        "P",
        "ro"
      ],
      [
        "R",
        "o"
      ],
      [
        "T",
        "ra"
      ],
      [
        "a",
        "os"
      ],
      [
        "a",
        "pro"
      ],
      [
        "a",
        "mb"
      ],
      [
        "a",
        "valia"
      ],
      [
        "b",
        "ele"
      ],
      [
        "c",
        "la"
      ],
      [
        "d",
        "ão"
      ],
      [
        "e",
        "cu"
      ],
      [
        "f",
        "é"
      ],
      [
        "f",
        "is"
      ],
      [
        "f",
        "ederal"
      ],
      [
        "g",
        "um"
      ],
      [
        "g",
        "ni"
      ],
      [
        "i",
        "x"
      ],
      [
        "i",
        "ções"
      ],
      [
        "j",
        "o"
      ],
      [
        "k",
        "m"
      ],
      [
        "s",
        "al"
      ],
      [
        "s",
        "ões"
      ],
      [
        "u",
        "r"
      ],
      [
        "á",
        "re"
      ],
      [
        "â",
        "ni"
      ],
      [
        "í",
        "cul"
      ],
      [
        "í",
        "vel"
      ],
      [
        "í",
        "lia"
      ],
      [
        "ó",
        "veis"
      ],
      [
        "de",
        "po"
      ],
      [
        "de",
        "manda"
      ],
      [
        "do",
        "is"
      ],
      [
        "as",
        "sumi"
      ],
      [
        "ri",
        "na"
      ],
      [
        "ri",
        "bu"
      ],
      [
        "ri",
        "stas"
      ],
      [
        "er",
        "os"
      ],
      [
        "ca",
        "m"
      ],
      [
        "ca",
        "pital"
      ],
      [
        "ca",
        "fé"
      ],
      [
        "em",
        "p"
      ],
      [
        "re",
        "no"
      ],
      [
        "ent",
        "ão"
      ],
      [
        "qu",
        "ar"
      ],
      [
        "na",
        "tural"
      ],
      [
        "en",
        "e"
      ],
      [
        "en",
        "dência"
      ],
      [
        "po",
        "u"
      ],
      [
        "po",
        "de"
      ],
      [
        "20",
        "20"
      ],
      [
        "20",
        "10"
      ],
      [
        "20",
        "21"
      ],
      [
        "pro",
        "cesso"
      ],
      [
        "du",
        "zi"
      ],
      [
        "des",
        "ta"
      ],
      [
        "con",
        "stitu"
      ],
      [
        "con",
        "stituição"
      ],
      [
        "ou",
        "ro"
      ],
      [
        "pe",
        "ti"
      ],
      [
        "va",
        "m"
      ],
      [
        "tor",
        "na"
      ],
      [
        "gu",
        "erra"
      ],
      [
        "mun",
        "dia"
      ],
      [
        "ter",
        "mos"
      ],
      [
        "si",
        "do"
      ],
      [
        "pos",
        "terior"
      ],
      [
        "lo",
        "gia"
      ],
      [
        "sa",
        "úde"
      ],
      [
        "mé",
        "dia"
      ],
      [
        "gra",
        "ma"
      ],
      [
        "vol",
        "u"
      ],
      [
        "ne",
        "g"
      ],
      [
        "cont",
        "ra"
      ],
      [
        "tiva",
        "mente"
      ],
      [
        "val",
        "or"
      ],
      [
        "gua",
        "i"
      ],
      [
        "elei",
        "to"
      ],
      [
        "elei",
        "ções"
      ],
      [
        "espe",
        "cial"
      ],
      [
        "nor",
        "te"
      ],
      [
        "dis",
        "so"
      ],
      [
        "ní",
        "veis"
      ],
      [
        "difer",
        "entes"
      ],
      [
        "ofi",
        "cial"
      ],
      [
        "comer",
        "cial"
      ],
      [
        "fico",
        "u"
      ],
      [
        "lon",
        "go"
      ],
      [
        "gres",
        "so"
      ],
      [
        "finan",
        "c"
      ],
      [
        "respons",
        "ável"
      ],
      [
        "embo",
        "ra"
      ],
      [
        "áre",
        "as"
      ],
      [
        "depo",
        "is"
      ],
      [
        "mundia",
        "is"
      ],
      [
        "%",
        ")"
      ],
      [
        "4",
        "2"
      ],
      [
        "5",
        "8"
      ],
      [
        "7",
        "0"
      ],
      [
        "7",
        "5"
      ],
      [
        "A",
        "le"
      ],
      [
        "B",
        "an"
      ],
      [
        "C",
        "ent"
      ],
      [
        "D",
        "o"
      ],
      [
        "F",
        "un"
      ],
      [
        "F",
        "ede"
      ],
      [
        "M",
        "W"
      ],
      [
        "M",
        "o"
      ],
      [
        "M",
        "er"
      ],
      [
        "M",
        "el"
      ],
      [
        "O",
        "r"
      ],
      [
        "P",
        "er"
      ],
      [
        "a",
        "is"
      ],
      [
        "b",
        "ri"
      ],
      [
        "b",
        "lica"
      ],
      [
        "c",
        "li"
      ],
      [
        "c",
        "ede"
      ],
      [
        "e",
        "ó"
      ],
      [
        "e",
        "qui"
      ],
      [
        "g",
        "ica"
      ],
      [
        "h",
        "as"
      ],
      [
        "h",
        "er"
      ],
      [
        "j",
        "aneiro"
      ],
      [
        "m",
        "al"
      ],
      [
        "o",
        "cu"
      ],
      [
        "p",
        "é"
      ],
      [
        "t",
        "é"
      ],
      [
        "v",
        "ários"
      ],
      [
        "x",
        "i"
      ],
      [
        "ra",
        "is"
      ],
      [
        "ra",
        "dos"
      ],
      [
        "es",
        "tu"
      ],
      [
        "ri",
        "as"
      ],
      [
        "da",
        "n"
      ],
      [
        "al",
        "gum"
      ],
      [
        "ma",
        "nt"
      ],
      [
        "ma",
        "das"
      ],
      [
        "ci",
        "os"
      ],
      [
        "ci",
        "ne"
      ],
      [
        "ca",
        "n"
      ],
      [
        "ca",
        "das"
      ],
      [
        "ca",
        "pita"
      ],
      [
        "no",
        "l"
      ],
      [
        "en",
        "ças"
      ],
      [
        "com",
        "e"
      ],
      [
        "el",
        "i"
      ],
      [
        "el",
        "es"
      ],
      [
        "di",
        "ta"
      ],
      [
        "di",
        "vi"
      ],
      [
        "tu",
        "r"
      ],
      [
        "tu",
        "ristas"
      ],
      [
        "res",
        "er"
      ],
      [
        "an",
        "u"
      ],
      [
        "on",
        "de"
      ],
      [
        "con",
        "cent"
      ],
      [
        "con",
        "dições"
      ],
      [
        "su",
        "pe"
      ],
      [
        "mo",
        "vi"
      ],
      [
        "19",
        "50"
      ],
      [
        "ex",
        "t"
      ],
      [
        "ex",
        "plo"
      ],
      [
        "pe",
        "c"
      ],
      [
        "pe",
        "ração"
      ],
      [
        "va",
        "ção"
      ],
      [
        "tor",
        "ial"
      ],
      [
        "gu",
        "as"
      ],
      [
        "ter",
        "ra"
      ],
      [
        "si",
        "gni"
      ],
      [
        "ve",
        "ícul"
      ],
      [
        "me",
        "di"
      ],
      [
        "me",
        "tros"
      ],
      [
        "),",
        "["
      ],
      [
        "esta",
        "bele"
      ],
      [
        "iz",
        "ou"
      ],
      [
        "tem",
        "po"
      ],
      [
        "ho",
        "je"
      ],
      [
        "polí",
        "ticas"
      ],
      [
        "au",
        "x"
      ],
      [
        "tro",
        "u"
      ],
      [
        "fa",
        "z"
      ],
      [
        "ag",
        "ricultura"
      ],
      [
        "tri",
        "z"
      ],
      [
        "reg",
        "ist"
      ],
      [
        "00",
        "0"
      ],
      [
        "ens",
        "ino"
      ],
      [
        "pl",
        "ement"
      ],
      [
        "dé",
        "ci"
      ],
      [
        "fin",
        "al"
      ],
      [
        "eta",
        "nol"
      ],
      [
        "199",
        "0"
      ],
      [
        "respon",
        "de"
      ],
      [
        "principal",
        "mente"
      ],
      [
        "Gu",
        "erra"
      ],
      [
        "Nor",
        "te"
      ],
      [
        "Nor",
        "deste"
      ],
      [
        "pas",
        "sa"
      ],
      [
        "pu",
        "blica"
      ],
      [
        "inte",
        "gra"
      ],
      [
        "men",
        "os"
      ],
      [
        "XV",
        "I"
      ],
      [
        "gera",
        "ção"
      ],
      [
        "gru",
        "pos"
      ],
      [
        "glo",
        "bal"
      ],
      [
        "mei",
        "o"
      ],
      [
        "pot",
        "ência"
      ],
      [
        "manufa",
        "tura"
      ],
      [
        "Ch",
        "ina"
      ],
      [
        "Du",
        "rante"
      ],
      [
        "Par",
        "tido"
      ],
      [
        "Vi",
        "cente"
      ],
      [
        "pró",
        "pri"
      ],
      [
        "ét",
        "rica"
      ],
      [
        "cin",
        "co"
      ],
      [
        "dici",
        "ário"
      ],
      [
        "plan",
        "eta"
      ],
      [
        "partici",
        "pa"
      ],
      [
        "pesso",
        "as"
      ],
      [
        "cli",
        "ma"
      ],
      [
        "cine",
        "ma"
      ],
      [
        "divi",
        "di"
      ],
      [
        "signi",
        "fica"
      ],
      [
        "3",
        "3"
      ],
      [
        "4",
        "9"
      ],
      [
        "5",
        "5"
      ],
      [
        "7",
        "2"
      ],
      [
        "7",
        "3"
      ],
      [
        "8",
        "9"
      ],
      [
        ";",
        "["
      ],
      [
        "B",
        "R"
      ],
      [
        "B",
        "a"
      ],
      [
        "B",
        "ras"
      ],
      [
        "B",
        "ol"
      ],
      [
        "C",
        "ol"
      ],
      [
        "E",
        "n"
      ],
      [
        "G",
        "E"
      ],
      [
        "G",
        "erais"
      ],
      [
        "M",
        "inas"
      ],
      [
        "P",
        "es"
      ],
      [
        "U",
        "S"
      ],
      [
        "a",
        "ça"
      ],
      [
        "b",
        "l"
      ],
      [
        "c",
        "ei"
      ],
      [
        "f",
        "al"
      ],
      [
        "f",
        "re"
      ],
      [
        "f",
        "ran"
      ],
      [
        "f",
        "alta"
      ],
      [
        "g",
        "er"
      ],
      [
        "g",
        "ou"
      ],
      [
        "g",
        "ol"
      ],
      [
        "g",
        "ás"
      ],
      [
        "h",
        "os"
      ],
      [
        "i",
        "mobil"
      ],
      [
        "j",
        "or"
      ],
      [
        "l",
        "an"
      ],
      [
        "l",
        "ista"
      ],
      [
        "m",
        "í"
      ],
      [
        "m",
        "ina"
      ],
      [
        "n",
        "cial"
      ],
      [
        "o",
        "nais"
      ],
      [
        "p",
        "ass"
      ],
      [
        "s",
        "el"
      ],
      [
        "s",
        "ia"
      ],
      [
        "s",
        "istem"
      ],
      [
        "t",
        "ele"
      ],
      [
        "t",
        "inha"
      ],
      [
        "u",
        "c"
      ],
      [
        "z",
        "a"
      ],
      [
        "à",
        "s"
      ],
      [
        "á",
        "cio"
      ],
      [
        "é",
        "tri"
      ],
      [
        "í",
        "n"
      ],
      [
        "ó",
        "r"
      ],
      [
        "ú",
        "ni"
      ],
      [
        "ra",
        "r"
      ],
      [
        "ri",
        "os"
      ],
      [
        "al",
        "i"
      ],
      [
        "ci",
        "da"
      ],
      [
        "ca",
        "na"
      ],
      [
        "em",
        "er"
      ],
      [
        "em",
        "is"
      ],
      [
        "ta",
        "r"
      ],
      [
        "in",
        "stitu"
      ],
      [
        "in",
        "ves"
      ],
      [
        "in",
        "dica"
      ],
      [
        "re",
        "ces"
      ],
      [
        "re",
        "nda"
      ],
      [
        "re",
        "cursos"
      ],
      [
        "pa",
        "pel"
      ],
      [
        "pa",
        "cial"
      ],
      [
        "qu",
        "er"
      ],
      [
        "qu",
        "il"
      ],
      [
        "qu",
        "at"
      ],
      [
        "na",
        "do"
      ],
      [
        "na",
        "ção"
      ],
      [
        "na",
        "ções"
      ],
      [
        "na",
        "ves"
      ],
      [
        "en",
        "quanto"
      ],
      [
        "com",
        "un"
      ],
      [
        "com",
        "pra"
      ],
      [
        "com",
        "peti"
      ],
      [
        "el",
        "o"
      ],
      [
        "to",
        "da"
      ],
      [
        "to",
        "das"
      ],
      [
        "se",
        "ja"
      ],
      [
        "tu",
        "ras"
      ],
      [
        "por",
        "te"
      ],
      [
        "te",
        "ra"
      ],
      [
        "Brasil",
        "eiro"
      ],
      [
        "Brasil",
        "eira"
      ],
      [
        "20",
        "13"
      ],
      [
        "on",
        "et"
      ],
      [
        "ís",
        "tica"
      ],
      [
        "pro",
        "por"
      ],
      [
        "du",
        "ca"
      ],
      [
        "mo",
        "der"
      ],
      [
        "ex",
        "ter"
      ],
      [
        "ou",
        "tro"
      ],
      [
        "so",
        "mente"
      ],
      [
        "so",
        "cial"
      ],
      [
        "va",
        "is"
      ],
      [
        "tor",
        "i"
      ],
      [
        "ran",
        "á"
      ],
      [
        "vi",
        "da"
      ],
      [
        "produ",
        "z"
      ],
      [
        "li",
        "o"
      ],
      [
        "st",
        "ível"
      ],
      [
        "pos",
        "i"
      ],
      [
        "lo",
        "cal"
      ],
      [
        "gi",
        "ão"
      ],
      [
        "cos",
        "ul"
      ],
      [
        "for",
        "ça"
      ],
      [
        "iz",
        "a"
      ],
      [
        "ru",
        "to"
      ],
      [
        "cu",
        "ária"
      ],
      [
        "nom",
        "ina"
      ],
      [
        "gover",
        "nos"
      ],
      [
        "polí",
        "ticos"
      ],
      [
        "200",
        "7"
      ],
      [
        "200",
        "8"
      ],
      [
        "ag",
        "rí"
      ],
      [
        "Pa",
        "ra"
      ],
      [
        "cont",
        "ro"
      ],
      [
        "Re",
        "pública"
      ],
      [
        "Con",
        "gresso"
      ],
      [
        "segun",
        "da"
      ],
      [
        "gan",
        "ização"
      ],
      [
        "IB",
        "GE"
      ],
      [
        "Se",
        "gun"
      ],
      [
        "Al",
        "ém"
      ],
      [
        "euro",
        "pei"
      ],
      [
        "pan",
        "ha"
      ],
      [
        "196",
        "0"
      ],
      [
        "ob",
        "je"
      ],
      [
        "ris",
        "mo"
      ],
      [
        "vis",
        "ão"
      ],
      [
        "inclu",
        "indo"
      ],
      [
        "diver",
        "si"
      ],
      [
        "fil",
        "mes"
      ],
      [
        "ofi",
        "cialmente"
      ],
      [
        "desenvol",
        "vimento"
      ],
      [
        "comer",
        "ciais"
      ],
      [
        "econômi",
        "co"
      ],
      [
        "demo",
        "crá"
      ],
      [
        "aero",
        "naves"
      ],
      [
        "escra",
        "vos"
      ],
      [
        "indep",
        "ende"
      ],
      [
        "indep",
        "endência"
      ],
      [
        "america",
        "no"
      ],
      [
        "classifica",
        "do"
      ],
      [
        "front",
        "eira"
      ],
      [
        "cara",
        "c"
      ],
      [
        "imigra",
        "ntes"
      ],
      [
        "histó",
        "ria"
      ],
      [
        "Ferna",
        "ndo"
      ],
      [
        "amb",
        "i"
      ],
      [
        "ecu",
        "tivo"
      ],
      [
        "quar",
        "to"
      ],
      [
        "volu",
        "ção"
      ],
      [
        "neg",
        "ó"
      ],
      [
        "Mer",
        "cosul"
      ],
      [
        "Or",
        "ganização"
      ],
      [
        "ocu",
        "pa"
      ],
      [
        "algum",
        "as"
      ],
      [
        "reser",
        "vas"
      ],
      [
        "supe",
        "rior"
      ],
      [
        "veícul",
        "os"
      ],
      [
        "imobil",
        "i"
      ],
      [
        "quat",
        "ro"
      ],
      [
        "obje",
        "tivo"
      ],
      [
        "%",
        "),"
      ],
      [
        "6",
        "5"
      ],
      [
        "7",
        "1"
      ],
      [
        "8",
        "0"
      ],
      [
        "8",
        "8"
      ],
      [
        "A",
        "n"
      ],
      [
        "A",
        "t"
      ],
      [
        "A",
        "me"
      ],
      [
        "D",
        "i"
      ],
      [
        "D",
        "es"
      ],
      [
        "F",
        "ran"
      ],
      [
        "G",
        "W"
      ],
      [
        "G",
        "o"
      ],
      [
        "M",
        "é"
      ],
      [
        "O",
        "M"
      ],
      [
        "S",
        "o"
      ],
      [
        "X",
        "X"
      ],
      [
        "b",
        "em"
      ],
      [
        "b",
        "ras"
      ],
      [
        "b",
        "un"
      ],
      [
        "b",
        "ruto"
      ],
      [
        "c",
        "ro"
      ],
      [
        "c",
        "endo"
      ],
      [
        "d",
        "á"
      ],
      [
        "d",
        "un"
      ],
      [
        "e",
        "fe"
      ],
      [
        "f",
        "es"
      ],
      [
        "f",
        "ério"
      ],
      [
        "g",
        "é"
      ],
      [
        "g",
        "ent"
      ],
      [
        "i",
        "dio"
      ],
      [
        "l",
        "â"
      ],
      [
        "l",
        "ó"
      ],
      [
        "l",
        "es"
      ],
      [
        "o",
        "ra"
      ],
      [
        "o",
        "na"
      ],
      [
        "p",
        "ção"
      ],
      [
        "p",
        "la"
      ],
      [
        "p",
        "ério"
      ],
      [
        "r",
        "ência"
      ],
      [
        "s",
        "ó"
      ],
      [
        "á",
        "r"
      ],
      [
        "á",
        "gua"
      ],
      [
        "á",
        "lia"
      ],
      [
        "ç",
        "ou"
      ],
      [
        "ê",
        "mi"
      ],
      [
        "de",
        "nt"
      ],
      [
        "de",
        "fin"
      ],
      [
        "de",
        "vido"
      ],
      [
        "ra",
        "nt"
      ],
      [
        "ra",
        "tiva"
      ],
      [
        "nt",
        "os"
      ],
      [
        "ri",
        "dade"
      ],
      [
        "al",
        "to"
      ],
      [
        "ci",
        "es"
      ],
      [
        "ca",
        "u"
      ],
      [
        "em",
        "bro"
      ],
      [
        "ta",
        "ção"
      ],
      [
        "ta",
        "dos"
      ],
      [
        "ta",
        "mento"
      ],
      [
        "ta",
        "nto"
      ],
      [
        "in",
        "g"
      ],
      [
        "in",
        "al"
      ],
      [
        "in",
        "cent"
      ],
      [
        "re",
        "li"
      ],
      [
        "ent",
        "ou"
      ],
      [
        "qu",
        "ia"
      ],
      [
        "na",
        "r"
      ],
      [
        "com",
        "bu"
      ],
      [
        "di",
        "u"
      ],
      [
        "di",
        "ção"
      ],
      [
        "tu",
        "rismo"
      ],
      [
        "por",
        "tos"
      ],
      [
        "ment",
        "al"
      ],
      [
        "te",
        "bol"
      ],
      [
        "ar",
        "t"
      ],
      [
        "ar",
        "re"
      ],
      [
        "que",
        "da"
      ],
      [
        "20",
        "15"
      ],
      [
        "20",
        "16"
      ],
      [
        "20",
        "23"
      ],
      [
        "on",
        "as"
      ],
      [
        "pro",
        "mul"
      ],
      [
        "pro",
        "grama"
      ],
      [
        "des",
        "t"
      ],
      [
        "des",
        "co"
      ],
      [
        "des",
        "sa"
      ],
      [
        "mo",
        "u"
      ],
      [
        "mo",
        "di"
      ],
      [
        "ex",
        "i"
      ],
      [
        "ex",
        "tra"
      ],
      [
        "ex",
        "pan"
      ],
      [
        "ex",
        "ten"
      ],
      [
        "so",
        "b"
      ],
      [
        "so",
        "na"
      ],
      [
        "so",
        "ciais"
      ],
      [
        "gu",
        "ar"
      ],
      [
        "im",
        "pos"
      ],
      [
        "im",
        "plement"
      ],
      [
        "at",
        "ó"
      ],
      [
        "ria",
        "mente"
      ],
      [
        "mil",
        "hão"
      ],
      [
        "si",
        "va"
      ],
      [
        "si",
        "dades"
      ],
      [
        "si",
        "tua"
      ],
      [
        "produ",
        "to"
      ],
      [
        "mb",
        "u"
      ],
      [
        "par",
        "c"
      ],
      [
        "la",
        "do"
      ],
      [
        "pos",
        "ta"
      ],
      [
        "gi",
        "u"
      ],
      [
        "est",
        "as"
      ],
      [
        "est",
        "il"
      ],
      [
        "cor",
        "rência"
      ],
      [
        "man",
        "ha"
      ],
      [
        "mé",
        "dio"
      ],
      [
        "sti",
        "ça"
      ],
      [
        "car",
        "ne"
      ],
      [
        "vol",
        "ta"
      ],
      [
        "200",
        "0"
      ],
      [
        "prim",
        "eiros"
      ],
      [
        "tal",
        "ia"
      ],
      [
        "min",
        "erais"
      ],
      [
        "Por",
        "to"
      ],
      [
        "col",
        "as"
      ],
      [
        "col",
        "ônia"
      ],
      [
        "Re",
        "ino"
      ],
      [
        "pre",
        "ende"
      ],
      [
        "rado",
        "r"
      ],
      [
        "exporta",
        "dor"
      ],
      [
        "sécul",
        "os"
      ],
      [
        "dé",
        "cadas"
      ],
      [
        "ser",
        "vi"
      ],
      [
        "am",
        "er"
      ],
      [
        "ba",
        "ix"
      ],
      [
        "cres",
        "ce"
      ],
      [
        "tran",
        "si"
      ],
      [
        "muni",
        "ci"
      ],
      [
        "pan",
        "h"
      ],
      [
        "pra",
        "ticamente"
      ],
      [
        "segu",
        "i"
      ],
      [
        "espe",
        "cialmente"
      ],
      [
        "manda",
        "to"
      ],
      [
        "influ",
        "ência"
      ],
      [
        "Sa",
        "nta"
      ],
      [
        "ini",
        "cia"
      ],
      [
        "Ar",
        "gent"
      ],
      [
        "Gu",
        "ia"
      ],
      [
        "importa",
        "nte"
      ],
      [
        "bar",
        "ris"
      ],
      [
        "dei",
        "ra"
      ],
      [
        "nti",
        "co"
      ],
      [
        "uni",
        "ver"
      ],
      [
        "inte",
        "rior"
      ],
      [
        "cria",
        "ção"
      ],
      [
        "rem",
        "o"
      ],
      [
        "escra",
        "vi"
      ],
      [
        "conhe",
        "cido"
      ],
      [
        "constru",
        "ção"
      ],
      [
        "últi",
        "mos"
      ],
      [
        "rin",
        "ha"
      ],
      [
        "tax",
        "a"
      ],
      [
        "tax",
        "as"
      ],
      [
        "rece",
        "be"
      ],
      [
        "tecno",
        "logia"
      ],
      [
        "loca",
        "is"
      ],
      [
        "fici",
        "ência"
      ],
      [
        "rie",
        "dade"
      ],
      [
        "lín",
        "gua"
      ],
      [
        "180",
        "8"
      ],
      [
        "assumi",
        "u"
      ],
      [
        "Ale",
        "manha"
      ],
      [
        "Mel",
        "hor"
      ],
      [
        "déci",
        "mo"
      ],
      [
        "manufatura",
        "dos"
      ],
      [
        "Bras",
        "ília"
      ],
      [
        "gol",
        "pe"
      ],
      [
        "sistem",
        "as"
      ],
      [
        "uc",
        "le"
      ],
      [
        "úni",
        "co"
      ],
      [
        "ali",
        "mentos"
      ],
      [
        "emis",
        "fério"
      ],
      [
        "inves",
        "ti"
      ],
      [
        "reces",
        "são"
      ],
      [
        "moder",
        "n"
      ],
      [
        "Ame",
        "rica"
      ],
      [
        "bun",
        "al"
      ],
      [
        "incent",
        "i"
      ],
      [
        "combu",
        "stível"
      ],
      [
        "Argent",
        "ina"
      ],
      [
        "\"",
        ","
      ],
      [
        "\"",
        "."
      ],
      [
        "%",
        ".["
      ],
      [
        "4",
        "1"
      ],
      [
        "4",
        "3"
      ],
      [
        "4",
        "6"
      ],
      [
        "4",
        "8"
      ],
      [
        "5",
        "4"
      ],
      [
        "6",
        "1"
      ],
      [
        "6",
        "7"
      ],
      [
        "7",
        "4"
      ],
      [
        "9",
        "6"
      ],
      [
        "9",
        "8"
      ],
      [
        "A",
        "pes"
      ],
      [
        "E",
        "conô"
      ],
      [
        "G",
        "lo"
      ],
      [
        "I",
        "t"
      ],
      [
        "I",
        "ta"
      ],
      [
        "J",
        "os"
      ],
      [
        "L",
        "i"
      ],
      [
        "L",
        "is"
      ],
      [
        "L",
        "ei"
      ],
      [
        "M",
        "ar"
      ],
      [
        "N",
        "A"
      ],
      [
        "N",
        "e"
      ],
      [
        "N",
        "os"
      ],
      [
        "O",
        "u"
      ],
      [
        "P",
        "erna"
      ],
      [
        "T",
        "a"
      ],
      [
        "T",
        "ri"
      ],
      [
        "T",
        "erra"
      ],
      [
        "U",
        "ru"
      ],
      [
        "V",
        "I"
      ],
      [
        "V",
        "ene"
      ],
      [
        "a",
        "z"
      ],
      [
        "a",
        "ci"
      ],
      [
        "a",
        "nte"
      ],
      [
        "b",
        "ens"
      ],
      [
        "c",
        "um"
      ],
      [
        "c",
        "rí"
      ],
      [
        "f",
        "ra"
      ],
      [
        "f",
        "os"
      ],
      [
        "f",
        "lor"
      ],
      [
        "g",
        "en"
      ],
      [
        "g",
        "ação"
      ],
      [
        "h",
        "ou"
      ],
      [
        "i",
        "ma"
      ],
      [
        "m",
        "ôni"
      ],
      [
        "n",
        "sa"
      ],
      [
        "n",
        "ses"
      ],
      [
        "n",
        "ucle"
      ],
      [
        "o",
        "ita"
      ],
      [
        "o",
        "ito"
      ],
      [
        "o",
        "este"
      ],
      [
        "p",
        "í"
      ],
      [
        "p",
        "ós"
      ],
      [
        "s",
        "í"
      ],
      [
        "s",
        "ina"
      ],
      [
        "u",
        "so"
      ],
      [
        "u",
        "gu"
      ],
      [
        "u",
        "ela"
      ],
      [
        "v",
        "il"
      ],
      [
        "v",
        "ista"
      ],
      [
        "z",
        "uela"
      ],
      [
        "Á",
        "sia"
      ],
      [
        "é",
        "rea"
      ],
      [
        "í",
        "do"
      ],
      [
        "de",
        "ci"
      ],
      [
        "de",
        "cla"
      ],
      [
        "de",
        "nomina"
      ],
      [
        "do",
        "vi"
      ],
      [
        "es",
        "por"
      ],
      [
        "es",
        "ar"
      ],
      [
        "es",
        "sa"
      ],
      [
        "es",
        "pé"
      ],
      [
        "co",
        "u"
      ],
      [
        "co",
        "ro"
      ],
      [
        "or",
        "ia"
      ],
      [
        "os",
        "to"
      ],
      [
        "da",
        "r"
      ],
      [
        "da",
        "ntes"
      ],
      [
        "al",
        "em"
      ],
      [
        "al",
        "can"
      ],
      [
        "ma",
        "ri"
      ],
      [
        "ci",
        "on"
      ],
      [
        "ta",
        "is"
      ],
      [
        "ro",
        "u"
      ],
      [
        "ro",
        "co"
      ],
      [
        "ro",
        "dovi"
      ],
      [
        "in",
        "ária"
      ],
      [
        "re",
        "b"
      ],
      [
        "re",
        "cu"
      ],
      [
        "re",
        "pública"
      ],
      [
        "re",
        "formas"
      ],
      [
        "ent",
        "os"
      ],
      [
        "ti",
        "es"
      ],
      [
        "ti",
        "tu"
      ],
      [
        "no",
        "t"
      ],
      [
        "qu",
        "el"
      ],
      [
        "qu",
        "ele"
      ],
      [
        "na",
        "tura"
      ],
      [
        "na",
        "tiva"
      ],
      [
        "com",
        "modi"
      ],
      [
        "se",
        "qu"
      ],
      [
        "tu",
        "bro"
      ],
      [
        "res",
        "tri"
      ],
      [
        "res",
        "pec"
      ],
      [
        "te",
        "g"
      ],
      [
        "po",
        "dem"
      ],
      [
        "ar",
        "mente"
      ],
      [
        "20",
        "17"
      ],
      [
        "20",
        "11"
      ],
      [
        "des",
        "i"
      ],
      [
        "des",
        "emp"
      ],
      [
        "con",
        "qu"
      ],
      [
        "con",
        "segu"
      ],
      [
        "su",
        "cesso"
      ],
      [
        "19",
        "30"
      ],
      [
        "ex",
        "a"
      ],
      [
        "ex",
        "pe"
      ],
      [
        "ex",
        "pres"
      ],
      [
        "ex",
        "ce"
      ],
      [
        "ex",
        "istem"
      ],
      [
        "ex",
        "ecutivo"
      ],
      [
        "ou",
        "tubro"
      ],
      [
        "pe",
        "tro"
      ],
      [
        "pe",
        "rado"
      ],
      [
        "pe",
        "cuária"
      ],
      [
        "so",
        "ja"
      ],
      [
        "so",
        "lar"
      ],
      [
        "va",
        "do"
      ],
      [
        "va",
        "riedade"
      ],
      [
        "mai",
        "o"
      ],
      [
        "ol",
        "i"
      ],
      [
        "vi",
        "ce"
      ],
      [
        "im",
        "óveis"
      ],
      [
        "mil",
        "ia"
      ],
      [
        "ni",
        "o"
      ],
      [
        "li",
        "de"
      ],
      [
        "li",
        "tera"
      ],
      [
        "par",
        "tes"
      ],
      [
        "me",
        "ados"
      ],
      [
        "ina",
        "ugu"
      ],
      [
        "cul",
        "inária"
      ],
      [
        "esta",
        "du"
      ],
      [
        "esta",
        "bilidade"
      ],
      [
        "esta",
        "dun"
      ],
      [
        "for",
        "ne"
      ],
      [
        "Es",
        "panha"
      ],
      [
        "iz",
        "ada"
      ],
      [
        "iz",
        "ados"
      ],
      [
        "ru",
        "tura"
      ],
      [
        "ça",
        "mento"
      ],
      [
        "est",
        "rutura"
      ],
      [
        "pi",
        "cal"
      ],
      [
        "15",
        "00"
      ],
      [
        "ga",
        "do"
      ],
      [
        "ga",
        "rant"
      ],
      [
        "mi",
        "cí"
      ],
      [
        "era",
        "ção"
      ],
      [
        "fica",
        "da"
      ],
      [
        "16",
        "0"
      ],
      [
        "tro",
        "pical"
      ],
      [
        "13",
        "0"
      ],
      [
        "fa",
        "tores"
      ],
      [
        "nci",
        "pe"
      ],
      [
        "200",
        "2"
      ],
      [
        "200",
        "6"
      ],
      [
        "200",
        "9"
      ],
      [
        "ag",
        "ro"
      ],
      [
        "ag",
        "osto"
      ],
      [
        "Pa",
        "raná"
      ],
      [
        "sé",
        "rie"
      ],
      [
        "cont",
        "in"
      ],
      [
        "mas",
        "sa"
      ],
      [
        "Os",
        "car"
      ],
      [
        "mes",
        "es"
      ],
      [
        "ju",
        "nto"
      ],
      [
        "ju",
        "diciário"
      ],
      [
        "regi",
        "onais"
      ],
      [
        "pre",
        "nsa"
      ],
      [
        "bo",
        "a"
      ],
      [
        "bo",
        "v"
      ],
      [
        "fe",
        "ras"
      ],
      [
        "ide",
        "nses"
      ],
      [
        "elei",
        "ção"
      ],
      [
        "40",
        "9"
      ],
      [
        "rí",
        "ncipe"
      ],
      [
        "qua",
        "is"
      ],
      [
        "Se",
        "nado"
      ],
      [
        "196",
        "4"
      ],
      [
        "35",
        "4"
      ],
      [
        "ten",
        "ção"
      ],
      [
        "segu",
        "rança"
      ],
      [
        "ame",
        "aça"
      ],
      [
        "via",
        "m"
      ],
      [
        "real",
        "ismo"
      ],
      [
        "preside",
        "ncial"
      ],
      [
        "Sa",
        "nto"
      ],
      [
        "ini",
        "ci"
      ],
      [
        "Ca",
        "ta"
      ],
      [
        "II",
        "I"
      ],
      [
        "ôn",
        "ica"
      ],
      [
        "inclu",
        "i"
      ],
      [
        "diver",
        "sas"
      ],
      [
        "difer",
        "enças"
      ],
      [
        "vez",
        "es"
      ],
      [
        "Su",
        "deste"
      ],
      [
        "dem",
        "ia"
      ],
      [
        "desenvol",
        "ve"
      ],
      [
        "198",
        "8"
      ],
      [
        "trans",
        "porte"
      ],
      [
        "Euro",
        "pei"
      ],
      [
        "qual",
        "idade"
      ],
      [
        "qual",
        "quer"
      ],
      [
        "manu",
        "tenção"
      ],
      [
        "auto",
        "m"
      ],
      [
        "econômi",
        "cas"
      ],
      [
        "Ex",
        "istem"
      ],
      [
        "In",
        "stitu"
      ],
      [
        "men",
        "or"
      ],
      [
        "ori",
        "gem"
      ],
      [
        "gru",
        "po"
      ],
      [
        "rela",
        "ção"
      ],
      [
        "int",
        "ro"
      ],
      [
        "tecno",
        "ló"
      ],
      [
        "impe",
        "rador"
      ],
      [
        "funda",
        "mental"
      ],
      [
        "front",
        "eiras"
      ],
      [
        "produzi",
        "u"
      ],
      [
        "lín",
        "guas"
      ],
      [
        "abri",
        "l"
      ],
      [
        "públi",
        "cas"
      ],
      [
        "conside",
        "rado"
      ],
      [
        "africa",
        "nos"
      ],
      [
        "cen",
        "so"
      ],
      [
        "ân",
        "cia"
      ],
      [
        "rei",
        "ras"
      ],
      [
        "trabal",
        "ho"
      ],
      [
        "chega",
        "da"
      ],
      [
        "hidrel",
        "étrica"
      ],
      [
        "hidrel",
        "étri"
      ],
      [
        "Amaz",
        "onas"
      ],
      [
        "Tra",
        "bal"
      ],
      [
        "avalia",
        "dos"
      ],
      [
        "reno",
        "v"
      ],
      [
        "pou",
        "co"
      ],
      [
        "posterior",
        "es"
      ],
      [
        "Ban",
        "co"
      ],
      [
        "Cent",
        "ro"
      ],
      [
        "eó",
        "lica"
      ],
      [
        "dan",
        "ças"
      ],
      [
        "come",
        "ça"
      ],
      [
        "anu",
        "al"
      ],
      [
        "ext",
        "ens"
      ],
      [
        "medi",
        "das"
      ],
      [
        "trou",
        "x"
      ],
      [
        "Bol",
        "sona"
      ],
      [
        "sel",
        "va"
      ],
      [
        "tele",
        "visão"
      ],
      [
        "competi",
        "tividade"
      ],
      [
        "onet",
        "ário"
      ],
      [
        "propor",
        "ção"
      ],
      [
        "contro",
        "le"
      ],
      [
        "Segun",
        "do"
      ],
      [
        "europei",
        "as"
      ],
      [
        "independe",
        "nte"
      ],
      [
        "At",
        "lâ"
      ],
      [
        "Di",
        "re"
      ],
      [
        "Des",
        "de"
      ],
      [
        "idio",
        "ma"
      ],
      [
        "ató",
        "rio"
      ],
      [
        "servi",
        "ços"
      ],
      [
        "amer",
        "índi"
      ],
      [
        "transi",
        "ção"
      ],
      [
        "munici",
        "pais"
      ],
      [
        "Guia",
        "na"
      ],
      [
        "Apes",
        "ar"
      ],
      [
        "It",
        "ália"
      ],
      [
        "Jos",
        "é"
      ],
      [
        "Perna",
        "mbu"
      ],
      [
        "Tri",
        "bunal"
      ],
      [
        "Uru",
        "guai"
      ],
      [
        "Vene",
        "zuela"
      ],
      [
        "pí",
        "rito"
      ],
      [
        "espé",
        "cies"
      ],
      [
        "commodi",
        "ties"
      ],
      [
        "desemp",
        "en"
      ],
      [
        "estadun",
        "idenses"
      ],
      [
        "Europei",
        "a"
      ],
      [
        "Bolsona",
        "ro"
      ],
      [
        "4",
        "7"
      ],
      [
        "5",
        "1"
      ],
      [
        "5",
        "9"
      ],
      [
        "6",
        "8"
      ],
      [
        "6",
        "9"
      ],
      [
        "7",
        "8"
      ],
      [
        "8",
        "2"
      ],
      [
        "8",
        "4"
      ],
      [
        "9",
        "0"
      ],
      [
        "9",
        "1"
      ],
      [
        "9",
        "7"
      ],
      [
        "9",
        "9"
      ],
      [
        "A",
        "g"
      ],
      [
        "A",
        "inda"
      ],
      [
        "A",
        "tual"
      ],
      [
        "A",
        "pós"
      ],
      [
        "C",
        "P"
      ],
      [
        "C",
        "S"
      ],
      [
        "C",
        "i"
      ],
      [
        "C",
        "in"
      ],
      [
        "C",
        "ar"
      ],
      [
        "C",
        "ru"
      ],
      [
        "C",
        "ab"
      ],
      [
        "D",
        "em"
      ],
      [
        "E",
        "qu"
      ],
      [
        "F",
        "il"
      ],
      [
        "F",
        "lor"
      ],
      [
        "F",
        "ór"
      ],
      [
        "G",
        "ru"
      ],
      [
        "H",
        "á"
      ],
      [
        "H",
        "emisfério"
      ],
      [
        "I",
        "S"
      ],
      [
        "I",
        "CS"
      ],
      [
        "J",
        "e"
      ],
      [
        "J",
        "á"
      ],
      [
        "K",
        "u"
      ],
      [
        "L",
        "e"
      ],
      [
        "M",
        "erca"
      ],
      [
        "M",
        "onetário"
      ],
      [
        "O",
        "este"
      ],
      [
        "P",
        "i"
      ],
      [
        "P",
        "al"
      ],
      [
        "P",
        "la"
      ],
      [
        "R",
        "ou"
      ],
      [
        "S",
        "al"
      ],
      [
        "S",
        "istema"
      ],
      [
        "T",
        "C"
      ],
      [
        "T",
        "or"
      ],
      [
        "T",
        "ran"
      ],
      [
        "U",
        "TC"
      ],
      [
        "a",
        "te"
      ],
      [
        "a",
        "pres"
      ],
      [
        "a",
        "ntes"
      ],
      [
        "a",
        "nti"
      ],
      [
        "a",
        "tividade"
      ],
      [
        "b",
        "é"
      ],
      [
        "b",
        "as"
      ],
      [
        "b",
        "ran"
      ],
      [
        "b",
        "endo"
      ],
      [
        "c",
        "ó"
      ],
      [
        "c",
        "lo"
      ],
      [
        "c",
        "ende"
      ],
      [
        "c",
        "ré"
      ],
      [
        "d",
        "ist"
      ],
      [
        "e",
        "v"
      ],
      [
        "e",
        "dade"
      ],
      [
        "e",
        "duca"
      ],
      [
        "f",
        "f"
      ],
      [
        "f",
        "ia"
      ],
      [
        "f",
        "li"
      ],
      [
        "f",
        "lu"
      ],
      [
        "g",
        "ram"
      ],
      [
        "g",
        "ente"
      ],
      [
        "h",
        "ia"
      ],
      [
        "h",
        "ando"
      ],
      [
        "h",
        "ores"
      ],
      [
        "i",
        "tas"
      ],
      [
        "i",
        "dência"
      ],
      [
        "l",
        "in"
      ],
      [
        "m",
        "is"
      ],
      [
        "n",
        "ica"
      ],
      [
        "o",
        "dos"
      ],
      [
        "o",
        "fer"
      ],
      [
        "o",
        "pera"
      ],
      [
        "o",
        "peração"
      ],
      [
        "o",
        "posi"
      ],
      [
        "p",
        "ó"
      ],
      [
        "p",
        "õ"
      ],
      [
        "p",
        "ré"
      ],
      [
        "p",
        "remo"
      ],
      [
        "p",
        "ríncipe"
      ],
      [
        "r",
        "êmi"
      ],
      [
        "s",
        "en"
      ],
      [
        "s",
        "se"
      ],
      [
        "s",
        "on"
      ],
      [
        "t",
        "ina"
      ],
      [
        "u",
        "í"
      ],
      [
        "u",
        "ta"
      ],
      [
        "u",
        "til"
      ],
      [
        "v",
        "or"
      ],
      [
        "v",
        "in"
      ],
      [
        "á",
        "tica"
      ],
      [
        "â",
        "mb"
      ],
      [
        "ã",
        "os"
      ],
      [
        "í",
        "da"
      ],
      [
        "í",
        "das"
      ],
      [
        "í",
        "ram"
      ],
      [
        "ô",
        "mb"
      ],
      [
        "de",
        "u"
      ],
      [
        "de",
        "ter"
      ],
      [
        "de",
        "corre"
      ],
      [
        "de",
        "corrência"
      ],
      [
        "ra",
        "z"
      ],
      [
        "ra",
        "estrutura"
      ],
      [
        "do",
        "u"
      ],
      [
        "es",
        "cri"
      ],
      [
        "es",
        "pacial"
      ],
      [
        "co",
        "b"
      ],
      [
        "co",
        "la"
      ],
      [
        "co",
        "loca"
      ],
      [
        "as",
        "so"
      ],
      [
        "nt",
        "u"
      ],
      [
        "or",
        "dem"
      ],
      [
        "os",
        "a"
      ],
      [
        "os",
        "e"
      ],
      [
        "ri",
        "que"
      ],
      [
        "ri",
        "cos"
      ],
      [
        "da",
        "ção"
      ],
      [
        "al",
        "ter"
      ],
      [
        "er",
        "ras"
      ],
      [
        "ma",
        "m"
      ],
      [
        "ma",
        "dos"
      ],
      [
        "ma",
        "nte"
      ],
      [
        "ci",
        "r"
      ],
      [
        "ci",
        "s"
      ],
      [
        "ci",
        "to"
      ],
      [
        "ci",
        "das"
      ],
      [
        "ci",
        "dades"
      ],
      [
        "ci",
        "vis"
      ],
      [
        "ci",
        "clo"
      ],
      [
        "ca",
        "teg"
      ],
      [
        "is",
        "ti"
      ],
      [
        "is",
        "so"
      ],
      [
        "em",
        "b"
      ],
      [
        "em",
        "as"
      ],
      [
        "ta",
        "da"
      ],
      [
        "ta",
        "das"
      ],
      [
        "il",
        "ia"
      ],
      [
        "il",
        "ha"
      ],
      [
        "il",
        "has"
      ],
      [
        "in",
        "z"
      ],
      [
        "in",
        "os"
      ],
      [
        "in",
        "sta"
      ],
      [
        "re",
        "f"
      ],
      [
        "re",
        "ban"
      ],
      [
        "re",
        "duzi"
      ],
      [
        "re",
        "cei"
      ],
      [
        "pa",
        "ul"
      ],
      [
        "pa",
        "ridade"
      ],
      [
        "ent",
        "i"
      ],
      [
        "ent",
        "al"
      ],
      [
        "ti",
        "mo"
      ],
      [
        "no",
        "vo"
      ],
      [
        "no",
        "vos"
      ],
      [
        "qu",
        "í"
      ],
      [
        "na",
        "gem"
      ],
      [
        "na",
        "dá"
      ],
      [
        "en",
        "ça"
      ],
      [
        "com",
        "p"
      ],
      [
        "com",
        "um"
      ],
      [
        "com",
        "pl"
      ],
      [
        "di",
        "cionais"
      ],
      [
        "to",
        "p"
      ],
      [
        "to",
        "ral"
      ],
      [
        "se",
        "tem"
      ],
      [
        "tu",
        "s"
      ],
      [
        "ul",
        "tra"
      ],
      [
        "ul",
        "ose"
      ],
      [
        "por",
        "ém"
      ],
      [
        "ment",
        "ou"
      ],
      [
        "te",
        "ria"
      ],
      [
        "ia",
        "is"
      ],
      [
        "po",
        "li"
      ],
      [
        "po",
        "nto"
      ],
      [
        "po",
        "ten"
      ],
      [
        "po",
        "vos"
      ],
      [
        "ar",
        "te"
      ],
      [
        "ar",
        "tes"
      ],
      [
        "20",
        "4"
      ],
      [
        "on",
        "eiro"
      ],
      [
        "ís",
        "ticas"
      ],
      [
        "ís",
        "ticos"
      ],
      [
        "pro",
        "mo"
      ],
      [
        "pro",
        "cu"
      ],
      [
        "pro",
        "bl"
      ],
      [
        "du",
        "ra"
      ],
      [
        "du",
        "as"
      ],
      [
        "du",
        "ção"
      ],
      [
        "des",
        "se"
      ],
      [
        "des",
        "cende"
      ],
      [
        "con",
        "fli"
      ],
      [
        "su",
        "i"
      ],
      [
        "su",
        "ces"
      ],
      [
        "mo",
        "de"
      ],
      [
        "mo",
        "mento"
      ],
      [
        "mo",
        "vimento"
      ],
      [
        "19",
        "3"
      ],
      [
        "19",
        "4"
      ],
      [
        "19",
        "45"
      ],
      [
        "ica",
        "is"
      ],
      [
        "va",
        "da"
      ],
      [
        "gu",
        "al"
      ],
      [
        "vi",
        "t"
      ],
      [
        "vi",
        "dos"
      ],
      [
        "vi",
        "das"
      ],
      [
        "im",
        "prensa"
      ],
      [
        "ha",
        "dores"
      ],
      [
        "at",
        "ribu"
      ],
      [
        "ter",
        "reno"
      ],
      [
        "li",
        "cos"
      ],
      [
        "ver",
        "no"
      ],
      [
        "me",
        "ga"
      ],
      [
        "ist",
        "ência"
      ],
      [
        "pos",
        "to"
      ],
      [
        "gi",
        "ram"
      ],
      [
        "pres",
        "idência"
      ],
      [
        "cos",
        "ta"
      ],
      [
        "18",
        "22"
      ],
      [
        "for",
        "me"
      ],
      [
        "Es",
        "pírito"
      ],
      [
        "le",
        "is"
      ],
      [
        "lí",
        "der"
      ],
      [
        "ru",
        "pção"
      ],
      [
        "cu",
        "jo"
      ],
      [
        "est",
        "ende"
      ],
      [
        "cor",
        "te"
      ],
      [
        "fi",
        "r"
      ],
      [
        "15",
        "0"
      ],
      [
        "ab",
        "er"
      ],
      [
        "ab",
        "il"
      ],
      [
        "ga",
        "da"
      ],
      [
        "mi",
        "co"
      ],
      [
        "per",
        "mi"
      ],
      [
        "14",
        "7"
      ],
      [
        "der",
        "ro"
      ],
      [
        "der",
        "ável"
      ],
      [
        "ho",
        "micí"
      ],
      [
        "us",
        "inas"
      ],
      [
        "ap",
        "esar"
      ],
      [
        "fica",
        "do"
      ],
      [
        "polí",
        "tico"
      ],
      [
        "16",
        "1"
      ],
      [
        "au",
        "mento"
      ],
      [
        "au",
        "tori"
      ],
      [
        "tro",
        "bras"
      ],
      [
        "car",
        "go"
      ],
      [
        "fa",
        "to"
      ],
      [
        "fa",
        "tor"
      ],
      [
        "fa",
        "milia"
      ],
      [
        "200",
        "5"
      ],
      [
        "ne",
        "ces"
      ],
      [
        "prim",
        "eiras"
      ],
      [
        "ces",
        "a"
      ],
      [
        "ag",
        "em"
      ],
      [
        "ag",
        "re"
      ],
      [
        "inter",
        "no"
      ],
      [
        "inter",
        "na"
      ],
      [
        "tri",
        "cidade"
      ],
      [
        "tri",
        "bu"
      ],
      [
        "No",
        "vo"
      ],
      [
        "min",
        "u"
      ],
      [
        "min",
        "ério"
      ],
      [
        "min",
        "eração"
      ],
      [
        "Uni",
        "do"
      ],
      [
        "popul",
        "ares"
      ],
      [
        "Co",
        "mo"
      ],
      [
        "Na",
        "ções"
      ],
      [
        "Por",
        "ém"
      ],
      [
        "Por",
        "tugu"
      ],
      [
        "Re",
        "volução"
      ],
      [
        "qui",
        "nto"
      ],
      [
        "ele",
        "tricidade"
      ],
      [
        "ju",
        "rí"
      ],
      [
        "ju",
[...]
